▁the 638957
▁, 522581
▁. 489904
s 485771
▁of 329915
▁in 317516
▁ 281514
▁and 235843
ed 204500
▁a 203271
▁is 197464
▁was 141528
▁to 139838
▁The 134397
▁'' 113663
▁`` 113555
( 90235
▁) 90105
ing 88728
- 83258
▁on 77265
y 74939
d 72845
▁for 68280
e 66809
▁as 66720
▁by 59991
▁' 59959
▁with 52644
er 49891
n 44852
▁that 44215
ly 42245
▁from 41867
▁at 40073
t 39658
▁It 37841
▁In 37638
▁He 37159
▁A 37074
▁be 36930
▁are 36268
a 36150
al 36069
▁an 36068
o 33452
▁first 33094
th 32155
. 32029
▁his 31960
▁he 28612
es 28295
▁or 28280
▁which 28064
in 27734
▁it 25607
▁city 23666
▁also 23650
▁one 21979
le 21235
r 20060
▁United 19757
l 19717
i 19716
c 19515
▁were 19334
▁has 19080
ic 18402
or 18236
▁S 18088
k 17630
on 17136
▁born 17136
m 17085
▁18 17043
▁not 17034
▁; 16694
▁States 16266
en 16246
st 15888
▁: 15728
▁New 15597
ation 15073
re 15015
▁two 14959
▁C 14644
▁her 14621
▁known 14566
▁had 14458
▁released 14449
it 14362
▁who 14304
el 14157
S 13800
▁most 13774
▁name 13567
ion 13299
▁re 13274
ro 13150
▁its 13127
▁after 12993
us 12983
▁but 12912
se 12854
z 12829
▁I 12782
ia 12637
ar 12627
▁American 12610
▁She 12582
▁second 12502
an 12437
f 12336
▁have 12223
▁F 12159
h 12126
▁B 12101
▁1 12030
▁state 11933
ent 11774
▁U 11772
ir 11692
▁their 11669
g 11641
ers 11630
▁de 11576
▁On 11514
il 11485
▁won 11422
▁part 11353
p 11199
came 11076
▁used 11067
ra 10963
▁other 10906
▁2 10754
▁largest 10569
▁album 10568
ch 10563
▁E 10549
▁called 10463
et 10415
▁World 10412
ies 10346
u 10313
▁G 10261
▁into 10103
ce 10062
▁O 10039
ne 9763
▁only 9678
ta 9663
▁been 9615
ver 9575
▁This 9476
▁3 9457
la 9419
A 9388
▁University 9374
▁made 9310
▁County 9237
▁team 9209
▁all 9122
▁she 9099
▁D 9071
▁T 9060
ur 9043
w 9043
ma 9008
li 8919
▁when 8899
ton 8833
▁can 8809
▁this 8756
to 8728
▁number 8659
is 8654
ian 8650
▁p 8640
▁three 8619
te 8576
lo 8502
▁K 8434
um 8364
▁P 8363
ine 8331
man 8283
▁where 8263
▁they 8255
na 8206
▁time 8203
▁over 8200
▁17 8164
vi 8092
ry 8067
b 8029
▁4 8029
▁f 8025
ter 7995
▁season 7970
ist 7942
▁game 7840
▁September 7800
▁between 7787
▁played 7751
▁co 7696
▁N 7678
▁series 7663
▁people 7638
▁years 7603
during 7585
▁South 7578
▁May 7575
ive 7572
▁about 7471
▁2010 7453
▁c 7383
id 7368
▁than 7322
▁area 7308
▁Re 7281
ck 7242
ke 7216
▁June 7214
▁August 7182
▁world 7181
▁City 7170
▁July 7161
C 7155
▁M 7155
de 7154
▁more 7133
▁W 7132
ve 7126
ul 7102
est 7100
ment 7094
▁October 7021
▁St 7014
▁La 7007
ig 7005
▁North 6957
▁November 6918
▁10 6910
, 6884
gan 6874
– 6810
at 6807
▁capital 6768
▁March 6747
x 6711
▁town 6606
ri 6596
P 6586
▁York 6578
son 6548
▁5 6525
▁locat 6512
until 6495
▁January 6472
ary 6451
▁third 6433
▁Le 6432
▁16 6429
▁t 6422
▁National 6376
▁many 6363
▁later 6318
▁county 6314
▁As 6303
▁War 6287
▁15 6275
ga 6214
ph 6200
▁2011 6183
ci 6163
▁December 6145
▁then 6141
▁April 6111
ity 6104
▁new 6081
as 6069
▁con 6039
di 6038
▁They 6025
tic 6021
▁year 6012
ol 5997
D 5986
▁Al 5982
ous 5963
▁– 5952
▁four 5939
co 5912
▁De 5903
▁band 5902
▁6 5887
▁film 5887
ut 5870
land 5853
▁some 5839
me 5818
▁b 5744
▁7 5708
▁February 5701
▁e 5689
▁such 5683
M 5669
▁there 5667
ok 5652
▁up 5640
mb 5629
ba 5571
va 5570
mp 5556
▁national 5555
▁out 5552
▁end 5519
▁River 5511
ant 5509
▁2008 5485
mo 5470
▁20 5443
▁2012 5440
▁show 5427
▁John 5402
▁12 5381
▁north 5373
▁British 5362
bo 5359
▁system 5351
▁under 5345
age 5329
go 5314
▁died 5308
▁play 5304
ti 5279
▁2007 5279
able 5277
▁since 5265
▁2013 5264
▁through 5246
am 5218
▁League 5215
op 5206
▁2009 5204
▁England 5204
▁R 5201
▁would 5188
▁both 5177
▁best 5175
▁football 5167
▁found 5135
▁English 5129
▁8 5112
▁L 5111
▁% 5106
▁well 5100
▁south 5082
▁population 5069
▁al 5068
B 5053
▁London 5042
▁Ra 5038
▁place 5038
▁serv 4999
▁2014 4991
▁no 4960
ha 4956
▁country 4951
I 4950
▁work 4947
ate 4936
▁single 4929
▁being 4927
▁Cup 4915
▁11 4902
▁France 4902
▁use 4892
▁million 4867
pp 4865
▁At 4865
ge 4859
▁H 4856
▁including 4853
▁14 4852
▁home 4851
▁main 4848
▁un 4802
▁Ma 4790
▁Pa 4781
▁song 4777
N 4775
/ 4755
ang 4751
im 4745
da 4736
L 4709
▁President 4703
▁before 4684
ance 4670
▁There 4666
ill 4663
▁language 4663
▁family 4649
▁same 4648
▁Co 4645
é 4642
up 4638
E 4631
▁region 4622
▁so 4622
▁record 4613
▁form 4606
▁V 4593
▁group 4569
▁2006 4558
▁tropical 4556
▁West 4543
T 4541
▁Li 4536
un 4529
▁him 4514
▁Mar 4510
ty 4502
▁do 4501
▁di 4495
ie 4475
ard 4472
▁13 4448
▁music 4447
▁television 4446
▁member 4433
com 4425
▁State 4407
▁former 4405
▁Sa 4400
▁9 4394
ven 4368
ow 4364
der 4363
▁son 4363
▁movie 4358
▁Me 4343
▁last 4334
▁Bo 4324
▁pro 4319
▁After 4317
tion 4303
▁whil 4303
ll 4301
▁German 4301
▁Ba 4287
▁Be 4263
out 4261
ka 4257
ish 4243
▁ex 4238
▁major 4221
▁Australia 4196
▁Con 4196
▁An 4195
1 4181
▁America 4179
ster 4159
▁Ha 4158
▁sp 4143
▁Ro 4138
▁Championship 4130
▁age 4129
F 4120
▁against 4093
ca 4090
ism 4079
tro 4062
▁Mo 4062
ial 4050
▁district 4049
ru 4037
round 4031
▁His 4023
▁2015 4015
▁title 4007
▁final 4004
▁Lo 3996
ak 3988
ot 3988
▁Party 3976
▁Ta 3976
▁win 3974
ide 3961
▁French 3951
▁Man 3949
▁water 3937
▁Germany 3936
▁California 3934
O 3922
▁Gu 3907
nd 3896
ley 3885
▁King 3881
j 3873
▁term 3867
▁India 3866
lu 3861
▁Car 3859
ab 3851
▁early 3841
om 3838
' 3820
▁2005 3814
ho 3813
▁five 3809
▁Di 3803
▁often 3796
▁match 3795
▁g 3783
pe 3778
▁province 3777
▁Ho 3776
au 3768
em 3766
ence 3752
mon 3749
▁government 3749
▁To 3741
▁19 3731
▁started 3726
▁Ca 3700
ated 3697
▁games 3687
▁any 3685
▁day 3683
▁death 3674
ect 3667
ium 3666
▁include 3664
ni 3640
▁west 3631
▁based 3630
ten 3622
▁El 3619
▁held 3617
▁Na 3612
▁2000 3607
▁east 3602
H 3601
▁Do 3601
▁now 3601
▁San 3598
▁because 3593
▁set 3593
gen 3591
▁Bar 3591
▁Vi 3589
hi 3580
▁II 3577
▁species 3577
▁near 3576
▁30 3573
▁dis 3561
▁No 3560
R 3541
no 3539
▁land 3535
▁pre 3535
les 3518
▁en 3509
▁century 3497
▁storm 3490
▁Republic 3489
▁per 3489
per 3487
▁several 3487
▁Canada 3485
G 3481
ical 3469
po 3467
2 3463
ham 3454
▁2004 3448
▁East 3448
▁So 3446
mi 3442
▁J 3437
3 3434
▁role 3434
$ 3429
▁Award 3423
▁n 3418
▁X 3417
ber 3409
▁may 3409
▁25 3408
▁along 3387
▁club 3384
▁All 3378
▁publish 3377
▁seat 3377
▁formed 3376
▁One 3365
che 3364
▁Her 3353
be 3349
▁large 3347
▁them 3339
▁founded 3329
our 3320
▁head 3315
▁Ja 3313
▁appear 3309
▁small 3295
▁following 3294
▁university 3287
mar 3272
ner 3266
ag 3263
▁father 3262
▁fourth 3241
den 3238
▁written 3232
▁Pi 3231
▁Kingdom 3204
ub 3197
▁player 3193
▁will 3189
▁popular 3186
▁version 3185
ell 3183
▁21 3177
▁Ne 3174
▁Se 3173
▁announc 3159
▁general 3158
▁Sea 3151
ac 3144
▁Howe 3142
▁each 3133
▁Europe 3126
▁Super 3126
& 3125
▁Japan 3125
ger 3115
▁House 3111
00 3108
▁24 3099
▁top 3088
▁US 3086
sen 3082
ite 3081
▁Great 3080
▁marri 3080
▁For 3078
W 3077
▁like 3072
▁different 3065
▁Park 3064
▁school 3064
▁Z 3055
▁Po 3049
▁sub 3049
▁reach 3040
▁23 3039
▁la 3027
▁2001 3024
▁debut 3024
though 3023
▁public 3021
▁six 3016
▁Ka 3012
▁car 3006
▁created 3003
▁race 3003
▁European 2999
▁usually 2989
ure 2988
▁22 2981
ud 2978
▁professional 2978
▁back 2974
gg 2961
▁very 2952
▁receiv 2947
V 2946
▁long 2943
ip 2939
▁Su 2916
tor 2902
▁Church 2897
▁common 2896
▁video 2892
ford 2887
▁air 2887
▁School 2858
ina 2856
ki 2856
▁Grand 2851
▁short 2847
▁island 2843
▁Best 2840
bb 2836
▁history 2825
▁built 2823
▁elected 2821
▁Ar 2820
▁Games 2820
▁high 2798
▁river 2788
▁2003 2787
qui 2777
▁inter 2773
▁Ga 2767
▁Pro 2767
shire 2765
ah 2753
▁Australian 2750
ach 2744
5 2740
min 2740
▁moved 2735
▁Dur 2733
▁International 2731
▁Minister 2731
the 2727
▁Sp 2727
▁Union 2726
con 2720
▁children 2720
▁When 2708
▁career 2705
ling 2704
▁man 2704
▁official 2703
▁defeat 2702
▁line 2693
▁College 2687
tra 2686
▁countries 2683
ions 2682
▁2002 2682
▁Lu 2677
ex 2668
▁did 2662
▁26 2656
▁highest 2656
▁chart 2655
▁rock 2654
▁important 2652
way 2650
▁join 2649
ron 2634
▁northern 2633
▁Chicago 2626
▁left 2626
ator 2624
▁members 2617
▁Cor 2611
▁list 2600
▁27 2591
▁Te 2590
line 2588
▁Cha 2586
▁if 2584
▁Royal 2582
one 2572
▁war 2571
van 2570
gu 2564
▁ma 2563
▁tri 2563
▁border 2561
val 2559
ft 2553
▁China 2553
qu 2551
▁become 2549
hu 2547
▁return 2545
▁Ireland 2543
given 2541
▁total 2541
ship 2533
▁Roman 2533
▁next 2532
▁District 2526
tu 2525
har 2522
▁daughter 2518
▁WWE 2515
ward 2513
▁Bu 2513
▁consider 2512
▁run 2510
bu 2509
▁period 2509
▁Island 2508
▁28 2507
rd 2506
time 2502
ally 2501
▁Pakistan 2495
▁law 2494
▁these 2494
▁100 2487
▁Jo 2486
▁Florida 2480
▁produced 2476
uc 2474
▁late 2473
▁side 2468
▁Los 2465
ville 2457
▁southern 2453
▁book 2450
wa 2446
▁Summer 2442
▁municipality 2442
▁Olympic 2440
pl 2436
v 2435
▁station 2434
cy 2431
ja 2431
▁v 2429
▁perform 2427
▁times 2427
if 2415
iv 2415
oc 2414
gi 2413
▁came 2408
▁UK 2406
▁host 2403
▁month 2403
▁live 2400
▁Hall 2398
▁again 2398
ong 2396
▁said 2396
▁Air 2391
▁person 2391
lan 2388
▁w 2388
que 2386
do 2384
don 2384
ler 2384
▁Africa 2382
▁Wa 2382
▁life 2381
ized 2379
▁29 2378
▁attack 2370
▁mother 2364
za 2360
▁medal 2353
▁order 2351
▁Per 2347
▁event 2339
▁hurricane 2338
4 2337
▁Canadian 2337
mer 2333
ever 2330
▁lost 2329
▁result 2329
▁Central 2327
▁1999 2325
▁seven 2324
▁ten 2321
men 2316
ick 2315
chi 2314
▁James 2313
▁off 2306
▁states 2306
side 2304
▁present 2303
lin 2293
▁championship 2292
▁Lake 2290
▁1990 2288
signed 2284
▁original 2283
av 2282
od 2278
▁art 2278
ors 2277
went 2275
fa 2272
▁Ri 2266
▁established 2266
▁league 2261
▁support 2259
tal 2257
▁finished 2256
▁just 2254
▁election 2253
▁You 2248
▁Go 2246
gar 2244
▁Sweden 2239
▁non 2237
by 2236
bra 2231
io 2230
▁pa 2230
▁1998 2228
▁Red 2227
yn 2217
▁singer 2217
rit 2214
fin 2213
▁make 2213
▁making 2213
▁wife 2213
▁Gra 2211
log 2208
▁Da 2207
pa 2192
act 2189
▁sold 2188
ture 2187
gr 2185
6 2182
▁Hu 2176
▁central 2176
▁men 2176
▁company 2174
▁developed 2174
▁how 2173
we 2165
▁fifth 2165
ath 2164
▁cities 2161
▁power 2161
ade 2158
▁another 2153
▁sea 2145
▁Mon 2144
▁studio 2140
res 2139
▁Min 2139
▁ca 2135
▁famous 2135
▁Th 2134
▁still 2133
▁George 2132
vo 2131
und 2128
▁Bay 2126
ung 2124
▁direct 2124
▁international 2123
▁Ko 2120
▁current 2115
▁Indian 2109
▁actor 2108
▁Texas 2105
U 2104
▁point 2098
▁1980 2096
▁Dr 2095
▁1996 2093
▁local 2090
▁round 2082
▁represent 2077
ris 2075
▁Fa 2073
▁led 2071
▁rule 2069
▁ho 2068
▁body 2064
▁example 2064
K 2063
ney 2062
gue 2061
▁William 2060
▁teams 2059
ual 2058
ition 2055
▁NHL 2052
▁Mexico 2051
,000 2050
▁plant 2050
▁Ju 2049
▁Some 2049
▁centre 2049
▁Academy 2047
▁Washington 2047
▁oldest 2047
▁stage 2036
▁center 2035
▁episode 2035
▁sometimes 2034
• 2032
▁Paul 2032
▁Pre 2031
sta 2026
▁My 2022
▁1995 2021
▁release 2020
ice 2015
▁Italy 2008
▁Prime 2008
▁full 2008
▁Mario 2007
▁Am 2003
▁contain 2003
red 2002
wi 2000
▁house 1999
▁own 1999
▁li 1998
▁Olympics 1992
▁Sch 1992
▁du 1991
ran 1989
old 1988
▁lead 1987
▁women 1982
▁leader 1976
▁Angeles 1975
▁consist 1975
▁currently 1973
▁cover 1972
▁Han 1971
▁Ke 1971
▁Ni 1971
▁census 1970
tur 1967
▁Japanese 1967
▁brother 1964
▁Ru 1961
▁word 1956
▁k 1950
bi 1947
▁km 1947
tt 1946
▁Wales 1945
▁every 1943
▁hit 1943
▁Un 1942
▁Army 1941
▁Bra 1940
ev 1939
▁modern 1939
port 1938
▁31 1938
field 1935
▁Che 1931
pi 1928
0,000 1927
▁1970 1924
cu 1922
▁1997 1920
▁Greek 1920
▁included 1916
ple 1914
▁Atlantic 1914
▁caus 1912
▁plays 1911
all 1907
cc 1906
ct 1906
▁eight 1906
▁bi 1905
▁pass 1904
tin 1903
▁By 1902
▁Northern 1901
▁Pe 1900
▁depression 1898
▁Gi 1894
▁remain 1893
▁Football 1887
▁week 1886
▁Latin 1885
ana 1884
▁coast 1883
▁mo 1882
ory 1881
ult 1880
eg 1877
▁Tri 1876
▁among 1876
hose 1874
▁Italian 1874
▁Sun 1870
kin 1866
▁novel 1866
▁position 1862
▁50 1859
▁Virginia 1859
han 1856
▁JM 1853
▁Western 1851
car 1848
▁character 1847
▁similar 1845
▁western 1844
▁department 1843
▁ch 1842
▁Can 1841
▁church 1841
ix 1838
▁1992 1838
▁wrote 1838
▁These 1837
▁languages 1837
▁great 1834
▁party 1834
▁Bur 1833
▁college 1831
he 1829
low 1828
▁Ex 1826
▁gold 1826
X 1825
ö 1825
ko 1823
using 1820
▁coul 1820
ino 1818
▁field 1818
▁parts 1818
▁African 1817
▁post 1813
▁take 1813
ap 1811
▁Earth 1811
▁color 1811
▁much 1811
▁Soviet 1810
▁political 1810
sur 1808
▁president 1807
▁Council 1806
▁Awards 1803
▁And 1801
▁eastern 1801
▁organ 1801
▁Du 1799
ative 1798
end 1798
▁1994 1798
▁opened 1798
▁Series 1797
▁way 1794
ov 1793
▁Rock 1792
▁We 1792
▁compet 1792
▁days 1792
▁old 1791
▁me 1789
▁met 1787
▁gra 1785
tan 1778
▁upgrad 1773
▁High 1772
▁right 1772
▁Je 1767
▁Most 1767
▁Spanish 1764
▁low 1764
▁Division 1760
▁due 1760
▁Or 1757
▁free 1754
ities 1750
▁Ben 1750
▁Chi 1748
▁Mac 1747
ness 1746
▁Billboard 1743
▁light 1742
▁building 1741
▁few 1737
cor 1735
▁Louis 1734
ep 1733
▁Music 1730
▁Star 1730
▁Scotland 1729
her 1728
▁help 1728
▁Illinois 1727
▁appoint 1727
▁originally 1724
ball 1722
▁down 1722
rac 1721
▁Queen 1720
▁white 1717
▁1960 1716
▁points 1713
▁General 1712
▁Russian 1711
▁living 1710
ting 1708
ement 1704
▁lo 1703
▁Mi 1702
▁means 1698
nes 1697
▁what 1697
▁Robert 1693
▁Hockey 1692
▁Cla 1691
cent 1690
á 1689
▁office 1689
less 1688
▁allow 1686
▁bo 1685
▁Michael 1684
▁replac 1682
having 1681
▁village 1681
▁With 1680
ü 1679
— 1679
▁Day 1679
▁Black 1675
▁Saint 1674
▁half 1673
▁type 1672
▁m 1670
▁Har 1669
▁Catholic 1668
ban 1665
▁Paris 1664
▁killed 1664
ps 1662
▁Charles 1662
▁continu 1662
▁discover 1662
▁function 1662
ica 1658
▁Bi 1657
▁actress 1655
▁1991 1651
▁Court 1651
▁officially 1650
▁process 1650
ett 1646
▁Is 1646
▁female 1645
fer 1644
▁vote 1642
lay 1640
▁does 1639
▁commonly 1637
ile 1636
▁Mal 1633
▁design 1632
▁God 1631
▁Mor 1630
▁Col 1629
▁force 1629
▁First 1628
ight 1627
ze 1626
berg 1625
▁Ocean 1620
▁Prize 1619
▁Spain 1619
▁successful 1619
▁Airport 1618
▁element 1616
pri 1615
▁space 1615
ai 1614
▁even 1614
ren 1613
row 1613
▁black 1611
▁biggest 1609
▁Richard 1607
▁level 1604
▁Sc 1603
▁strong 1599
▁Act 1597
▁division 1597
▁mountain 1596
king 1594
▁BC 1591
▁Governor 1590
pan 1589
▁Green 1584
day 1580
▁Force 1579
▁young 1579
ier 1578
▁Nintendo 1578
and 1575
▁2016 1575
▁Association 1575
phy 1574
year 1574
▁Christian 1574
▁military 1574
▁start 1569
10 1568
▁referr 1567
part 1566
20 1565
▁Henry 1565
▁go 1563
▁human 1559
ology 1558
▁child 1555
▁Si 1554
▁Ya 1554
ash 1553
iz 1550
lam 1549
▁1993 1549
▁Play 1549
▁divided 1549
tern 1548
▁Open 1545
▁mass 1542
mate 1541
off 1536
cle 1531
▁damage 1530
ay 1529
tch 1529
▁su 1529
▁artist 1528
▁featur 1528
▁Ver 1527
▁see 1526
stan 1525
▁En 1523
zo 1520
▁Russia 1520
▁areas 1520
▁Kar 1518
▁though 1518
ore 1517
▁Com 1515
▁model 1515
▁winning 1515
ji 1513
▁Islands 1513
▁Carolina 1511
▁hand 1509
▁red 1508
pur 1506
▁program 1505
▁real 1505
ä 1504
▁Parliament 1503
▁Tu 1502
’ 1500
▁ha 1500
▁lived 1499
▁exist 1498
ec 1497
▁Mary 1497
▁resid 1496
▁Tra 1492
▁peak 1492
▁site 1492
▁Empire 1491
▁Bal 1489
vel 1484
▁awarded 1484
qua 1483
let 1481
stra 1478
▁Disney 1477
ari 1475
▁Asia 1475
▁scored 1475
▁reported 1473
ington 1471
▁close 1471
▁less 1471
tri 1467
▁1984 1467
can 1466
itt 1464
▁1989 1463
▁either 1462
ise 1461
▁formula 1459
▁1988 1458
▁Mu 1458
mal 1457
▁cat 1456
J 1455
ny 1454
▁Jersey 1453
fe 1452
▁Bro 1452
▁cancer 1451
ette 1449
ey 1449
▁mid 1449
▁If 1448
▁natural 1448
▁story 1447
ram 1445
▁together 1445
▁Ch 1441
ker 1440
▁Zealand 1440
bin 1437
▁service 1435
sky 1434
▁Ku 1434
▁Netherlands 1434
▁metal 1434
du 1430
vin 1428
shi 1426
▁Winter 1426
ib 1425
▁Prince 1425
head 1424
ea 1423
▁Democratic 1421
▁White 1420
▁hold 1417
▁Pacific 1416
▁production 1416
▁vi 1415
▁seasons 1414
50 1411
▁Province 1410
▁tournament 1410
▁copie 1409
▁islands 1409
cul 1407
gro 1407
▁Center 1407
▁ice 1406
8 1404
▁Switzerland 1404
▁chang 1404
thing 1403
form 1402
▁nominat 1402
▁David 1401
▁From 1401
▁1986 1400
▁flow 1400
fi 1399
▁special 1398
ery 1396
▁Port 1396
▁starr 1395
▁Es 1390
▁Senate 1390
rie 1388
▁Gar 1388
▁average 1386
▁1987 1384
mun 1382
ya 1381
ional 1380
sis 1380
▁songs 1380
▁Ge 1379
▁sixth 1379
▁Cal 1376
ese 1374
▁Fi 1371
▁least 1371
▁Sal 1370
▁voice 1370
pro 1369
ug 1363
▁Records 1362
▁author 1361
▁Scottish 1359
▁control 1359
mor 1358
▁act 1357
▁Ber 1356
▁court 1356
▁Nor 1355
▁Tour 1355
cha 1354
▁Hot 1354
▁arm 1354
largest 1352
▁director 1352
▁refer 1351
▁mi 1350
▁retired 1350
lli 1349
▁park 1348
serv 1347
▁across 1347
▁JT 1345
▁Qu 1345
▁nation 1345
▁Val 1344
mm 1341
▁Bre 1341
▁performance 1341
WC 1338
▁Tropical 1338
▁sister 1338
nt 1335
▁Jackson 1335
▁aircraft 1335
rus 1334
▁Hill 1334
▁super 1332
▁Love 1331
▁Boy 1325
ux 1324
▁get 1324
▁ever 1323
ection 1322
▁Year 1322
▁1950 1321
mu 1319
▁numbers 1318
▁spoken 1318
▁Game 1317
▁success 1315
.5 1313
BA 1313
▁Victoria 1312
▁claim 1312
▁radio 1312
sha 1311
ctor 1310
▁mostly 1310
▁Britain 1309
▁1983 1308
▁rais 1307
▁1979 1306
ff 1305
▁Eastern 1305
▁Sinc 1305
pre 1300
▁bar 1300
▁friend 1300
▁study 1300
▁Senna 1297
▁pressure 1297
▁cause 1296
▁standard 1296
▁various 1296
▁Y 1294
▁independent 1294
▁coach 1292
zi 1291
stead 1290
▁airport 1290
▁lake 1290
▁politician 1290
▁style 1290
▁Nobel 1289
▁charge 1287
▁track 1287
▁trans 1287
illa 1286
▁Mad 1286
▁Thu 1286
ful 1285
lf 1285
▁1981 1285
▁Edward 1283
▁Formula 1283
▁Mc 1283
uk 1281
▁Dan 1274
▁earn 1274
rap 1273
▁object 1273
▁sports 1273
▁dr 1272
▁Fu 1271
led 1269
▁Chinese 1269
▁meaning 1269
▁1982 1268
▁Wi 1268
ox 1266
▁1974 1266
burg 1265
dge 1265
í 1264
▁base 1263
art 1262
itz 1262
▁estimat 1262
▁disease 1261
▁launch 1260
ough 1259
▁Bank 1259
▁Prost 1259
rr 1258
▁Gre 1258
▁1985 1255
▁followed 1254
▁development 1252
▁you 1252
▁Peter 1250
! 1249
most 1247
mph 1246
ified 1244
▁Berger 1244
▁becom 1244
▁cross 1244
▁Fe 1243
▁complet 1243
▁ship 1243
▁Ph 1241
tes 1238
▁chemical 1238
▁Tom 1236
play 1235
▁double 1235
▁king 1234
ric 1232
▁Bill 1232
▁Del 1231
▁1976 1230
▁Congress 1229
vol 1228
▁introduced 1228
▁bank 1226
ius 1225
▁Republican 1225
▁Song 1225
▁particular 1225
▁imp 1224
use 1223
▁Big 1223
▁contract 1223
▁move 1223
▁range 1223
▁Compan 1222
▁hockey 1222
▁cell 1221
▁goal 1221
▁Secretary 1220
▁na 1220
▁fish 1219
town 1218
bre 1217
▁star 1217
▁fire 1213
hen 1212
▁date 1212
▁network 1212
▁unit 1211
▁Va 1210
ists 1209
▁Ontario 1209
▁Southern 1209
ik 1208
rew 1208
▁heart 1208
▁works 1208
▁Hi 1207
ara 1206
ane 1205
▁Street 1205
▁never 1204
▁Old 1202
▁films 1202
▁tree 1202
▁Dutch 1198
▁tour 1198
ants 1196
▁According 1196
▁Em 1196
▁port 1195
▁size 1195
▁writer 1195
▁attend 1194
▁movement 1194
▁research 1190
30 1189
▁defin 1189
ating 1187
unt 1186
▁select 1186
rate 1185
rated 1185
▁40 1185
▁source 1185
▁once 1183
▁wrestler 1183
▁Mark 1181
▁forces 1181
ugh 1180
▁ball 1180
▁200 1179
▁household 1179
cal 1177
▁sequel 1177
▁battle 1176
▁business 1176
▁Irish 1175
▁describ 1175
▁Boston 1174
▁compos 1174
▁Windows 1173
▁action 1173
▁ground 1173
pat 1172
▁players 1172
ku 1171
▁III 1171
▁Line 1171
▁Raw 1171
▁blue 1171
▁comedy 1171
▁Brazil 1169
▁computer 1167
gate 1166
▁producer 1165
▁1972 1164
▁Ed 1164
▁outside 1164
▁Champion 1163
▁opera 1162
▁canton 1161
▁open 1161
▁road 1161
ink 1160
xi 1160
▁r 1160
▁Valley 1159
▁nine 1154
▁stars 1154
▁degree 1153
▁Hurricane 1152
ular 1151
▁1968 1151
▁Georgia 1151
▁Pla 1151
▁graduat 1151
▁But 1150
7 1149
▁books 1149
▁Br 1148
▁woman 1147
▁lie 1146
▁above 1145
lip 1144
▁Ohio 1144
ura 1143
▁almost 1143
ible 1142
over 1142
▁While 1142
pen 1141
▁edition 1141
▁counties 1140
ates 1139
lock 1139
▁Club 1137
▁Pennsylvania 1137
▁Thomas 1136
▁science 1136
▁0 1135
–19 1134
▁flag 1134
▁musical 1134
▁champion 1133
▁gave 1133
ring 1132
▁TV 1131
▁singles 1131
tag 1129
▁Pol 1129
▁Berlin 1128
▁Golden 1128
▁Pu 1128
▁1967 1127
east 1126
▁Battle 1125
▁wide 1125
▁Blue 1124
▁blood 1124
▁opponent 1124
rist 1123
▁Martin 1123
▁Ti 1123
▁turn 1122
bor 1121
win 1121
▁Korea 1119
▁Men 1119
well 1118
▁good 1118
▁Ser 1117
▁renam 1117
▁leading 1115
▁instrument 1114
hor 1113
▁Many 1113
▁Gal 1112
▁1975 1111
▁rest 1111
cho 1110
▁Fame 1110
▁studi 1110
▁availab 1109
▁People 1108
▁Prix 1108
▁Stanley 1108
▁energy 1107
lar 1106
▁finish 1106
▁winner 1106
▁anti 1104
▁entire 1104
▁headquarter 1104
0 1103
▁1973 1103
▁Championships 1103
▁Pan 1102
▁Two 1102
▁genus 1102
▁stadium 1102
▁Show 1101
▁appearance 1101
▁Columbia 1100
▁must 1098
▁Middle 1097
▁ju 1097
▁letter 1097
▁surface 1097
ious 1094
▁fight 1094
▁working 1094
40 1093
_ 1093
▁Q 1092
▁names 1091
▁districts 1090
12 1089
▁thought 1089
▁cap 1085
▁roles 1085
▁structure 1085
wal 1084
▁designed 1084
wood 1083
▁Museum 1083
my 1082
▁give 1082
par 1081
▁broadcast 1081
▁Ki 1080
ee 1079
▁Mountain 1079
▁Sam 1079
▁larger 1078
▁train 1076
gh 1075
▁acid 1075
▁behind 1075
▁temperature 1075
▁market 1074
▁metropolitan 1074
▁Sha 1073
▁1978 1072
▁Pri 1072
▁should 1072
▁food 1071
▁groups 1070
▁primar 1070
Station 1069
ani 1069
▁approximately 1069
▁test 1068
▁Luc 1066
▁class 1066
▁competition 1066
▁System 1065
▁got 1065
▁leg 1065
▁lower 1065
bri 1064
▁goals 1064
▁sent 1064
▁Land 1063
▁NFL 1063
▁Ter 1062
▁Sir 1061
▁gas 1060
hy 1057
▁case 1057
▁Vo 1055
▁commercial 1054
▁cells 1052
ert 1051
▁want 1051
uck 1050
▁key 1050
▁Final 1049
▁i 1049
tric 1048
▁Fl 1048
▁put 1048
65 1047
efore 1047
jo 1047
▁1969 1047
ez 1045
▁app 1045
▁others 1044
▁Tru 1043
ize 1042
▁1965 1041
▁Don 1041
▁Government 1041
▁Sta 1041
▁count 1041
ways 1040
▁Wrestling 1040
▁branch 1040
▁federal 1040
▁movies 1040
▁Oklahoma 1039
▁premier 1039
cap 1038
ola 1037
▁semi 1037
38 1036
je 1036
rim 1036
war 1036
▁mis 1036
▁night 1036
▁1977 1035
▁Finland 1035
▁Massachusetts 1035
itch 1034
▁Area 1034
▁Lee 1034
▁multi 1034
▁regular 1034
▁seventh 1033
▁makes 1031
▁serve 1031
stone 1029
▁Santa 1029
▁Tre 1029
▁civil 1029
▁taken 1029
▁far 1028
▁meter 1028
▁ring 1028
rat 1027
ria 1027
▁Hol 1027
▁schools 1027
▁1964 1026
▁longest 1025
▁students 1025
88 1024
bul 1024
▁Israel 1024
▁Mansel 1024
ray 1023
▁1971 1023
▁Premier 1022
▁visit 1022
▁Austria 1021
▁separate 1021
rich 1020
seen 1019
▁newspaper 1019
87 1018
▁private 1018
▁Department 1017
for 1016
lie 1016
▁airline 1016
▁Women 1015
▁Christ 1014
▁Manchester 1014
▁critic 1013
ised 1011
ped 1011
uch 1011
top 1010
▁That 1010
▁declar 1010
▁pop 1010
cus 1009
of 1009
▁away 1009
lia 1008
pu 1008
▁Swedish 1008
▁adopt 1008
▁weeks 1008
poli 1006
▁Maria 1005
▁we 1005
ort 1004
▁Philippines 1004
dom 1003
pel 1003
▁events 1003
ome 1002
bert 1001
ei 1001
tant 1001
▁Poland 1000
▁project 1000
▁sign 1000
▁regions 998
▁drama 996
ble 995
og 994
▁award 994
▁male 994
▁Second 993
▁div 992
▁owned 992
# 991
▁article 991
▁complete 991
▁protect 991
▁recogniz 991
▁related 991
▁front 990
48 989
▁Lord 989
▁Wo 989
▁ran 989
▁worldwide 989
west 988
▁occur 988
▁product 988
▁widely 988
oma 987
▁mainly 987
bal 985
▁grand 985
▁silver 985
▁Night 983
▁addition 983
▁community 983
▁itself 983
▁Major 980
avyweight 979
▁BBC 979
▁organization 979
▁ranked 978
▁today 978
▁1920 977
-19 976
▁especial 976
▁mu 976
ano 975
fri 975
ose 975
▁Fall 975
uff 974
▁Elizabeth 974
▁Kansas 974
ency 973
pot 973
▁Far 973
▁Michigan 972
▁albums 972
▁flight 971
▁relative 971
ush 970
▁billion 970
▁br 970
▁nomination 970
▁southeast 970
▁speak 969
▁Up 968
▁brand 968
▁composer 968
▁remained 968
▁typical 968
▁Son 967
▁surviv 967
42 966
▁Ly 966
▁fall 966
▁orchestra 966
▁simply 966
▁Institute 965
▁prime 965
nam 964
▁Cat 964
▁Committee 964
▁beginning 964
tis 963
▁Mer 963
▁Van 963
▁ancient 963
▁compound 962
▁Census 961
▁Navy 961
▁change 961
▁1930 960
▁Four 959
▁need 959
▁Bangladesh 958
▁recording 958
▁individual 956
▁Art 955
▁native 955
▁associat 954
▁Team 953
▁influence 953
66 952
92 952
▁Sh 952
▁Za 952
▁birth 952
▁majority 952
55 951
ng 951
cat 947
▁requir 947
née 946
▁Pra 946
▁1963 945
▁Constitution 945
▁types 945
▁Joseph 944
▁increase 944
17 943
▁smaller 943
▁parents 942
rid 941
▁1966 941
von 940
▁beat 940
▁symbol 940
▁Bel 939
▁animals 939
▁overall 939
▁para 939
▁planet 939
▁wh 939
] 938
ala 938
bil 938
▁Win 937
▁break 937
▁gu 937
ecause 936
▁middle 936
▁bridge 935
▁railway 935
nder 934
▁Bla 934
▁Mount 934
▁Philadelphia 934
▁draft 933
▁initial 933
bro 931
cker 930
worth 929
▁destroy 929
▁FIFA 928
▁pi 927
ean 926
▁length 926
▁1961 925
▁Bridge 925
▁Over 925
▁rec 925
▁square 925
97 924
ek 923
▁Beach 922
▁Rome 922
▁Smith 922
▁features 922
rad 921
▁Frank 921
▁Grammy 921
▁idea 921
▁whom 921
▁comes 920
▁tall 920
▁Patrese 919
▁Egypt 918
▁Under 918
onic 917
▁Album 917
▁Out 915
▁Punjab 915
▁further 915
▁miles 915
▁come 914
▁eventual 914
lon 912
[ 911
cher 911
lum 911
▁pen 911
▁green 910
▁rights 910
15 909
▁1945 909
▁Kan 909
▁Road 908
▁Ste 908
mmer 907
▁campus 907
18 904
char 904
▁characters 904
▁himself 904
▁northwest 904
gal 903
▁Arch 903
▁Iowa 903
rk 902
non 901
▁driver 900
▁read 900
tz 899
▁added 899
▁equal 899
ological 898
▁Chart 898
▁annual 898
▁northeast 897
85 896
▁Tim 896
gin 895
▁Missouri 894
ving 893
▁1948 893
▁Duke 893
▁pick 893
elling 892
▁minor 892
▁social 892
pon 891
▁celebrat 891
▁southwest 891
▁calendar 890
bar 889
▁Representatives 889
59 888
▁active 888
▁presidential 887
▁Shi 886
▁big 886
ization 885
▁involv 885
ou 884
▁Er 884
▁Storm 884
▁material 884
▁orbit 884
▁Francisco 883
bury 882
▁Wii 882
▁Wood 882
fl 881
q 881
▁Arm 881
▁1940 880
▁Jr 880
▁Nu 880
▁merg 880
▁previously 880
76 879
▁husband 879
▁section 879
hin 878
ju 878
put 878
▁Tan 878
▁popul 878
▁writing 878
▁engine 877
▁offer 877
▁1947 876
▁fact 876
ock 875
▁atom 875
▁significant 875
oli 874
è 874
▁economic 874
▁historical 874
▁Muslim 873
▁situat 873
▁administrative 872
▁magazine 872
▁Ven 871
▁Pope 870
▁primari 870
ella 869
▁1952 869
▁Bowl 869
▁pay 869
ole 868
▁Fox 868
▁Hy 867
▁follow 867
▁location 867
cell 866
ken 866
▁Conference 866
▁Jack 866
▁Other 866
▁territory 866
bit 865
▁families 865
▁mathematic 865
ically 864
▁Au 864
▁Bros 864
▁Town 864
▁education 864
95 863
bur 862
▁provid 862
56 861
▁Toronto 861
▁Czech 860
▁Smack 859
▁higher 859
tus 857
▁Mil 857
▁sound 857
▁view 857
mat 856
rin 856
set 855
86 854
▁Law 854
▁Life 854
▁condition 854
▁previous 854
ew 853
▁Jesus 853
▁honor 853
69 852
▁Top 852
▁effect 852
▁entered 852
▁below 851
▁summer 851
47 850
▁disc 850
▁hard 850
81 849
▁attempt 849
path 848
▁my 848
▁past 847
▁according 846
▁love 846
▁Kong 844
az 843
cation 843
▁Group 843
▁Spring 843
▁conduct 843
▁electric 843
▁borough 842
▁culture 842
▁face 841
▁Jewish 840
▁Mel 840
▁value 840
▁sell 837
,2 836
▁Stadium 836
▁feature 836
Y 835
hr 835
mic 835
▁Para 835
▁tell 835
oo 834
▁injur 834
: 833
▁Region 833
▁Time 833
▁Long 832
▁words 832
99 831
Down 831
ō 831
▁Ken 831
▁Minnesota 831
▁Science 831
▁enter 831
▁piece 831
▁urban 831
▁Alabama 830
▁Korean 830
▁officer 830
▁traditional 830
77 829
▁Dam 829
▁incorporat 829
af 828
ā 828
▁1962 828
▁musician 828
▁units 828
▁Ze 827
▁defend 827
▁electron 827
44 826
ffi 826
▁candidate 826
▁sport 826
07 825
American 825
▁Civil 824
▁Entertainment 824
▁Ol 824
hel 823
▁Dar 823
▁Young 823
▁spin 823
° 822
▁legal 822
▁services 822
hol 821
▁code 821
▁find 821
▁Airline 820
▁Fo 820
▁Les 820
53 819
ttle 819
▁Channel 819
▁Will 819
▁link 819
,0 818
ree 818
▁cyclone 818
▁rate 818
like 817
▁1949 816
▁Malaysia 816
▁Plan 816
▁Water 816
▁dog 815
▁particle 815
▁operation 814
▁regard 814
▁subsequent 814
▁Comp 813
▁Cre 813
▁Home 813
▁governor 813
54 811
long 811
▁Film 811
▁girl 810
▁rank 810
57 809
▁principal 809
FC 808
back 808
▁1956 808
▁kind 808
▁Williams 807
▁god 807
14 806
▁da 806
46 805
▁Little 805
▁actual 805
▁guitar 805
▁reaction 805
kh 804
▁Brazilian 804
▁able 804
▁police 804
▁Ann 803
▁Par 803
house 802
vor 802
▁McC 802
▁confirm 802
ue 801
▁marriage 801
▁Wal 800
net 799
▁Book 799
▁Service 799
▁Ang 798
▁leave 798
more 797
▁concert 797
▁report 797
istic 796
▁Orchestra 796
▁better 796
▁victory 796
ural 795
akh 794
▁Ger 794
▁Kentuck 794
▁produce 794
▁treat 794
▁wrestl 794
assi 793
▁Yu 793
▁awards 793
▁generation 793
▁parish 793
▁Ana 792
▁systems 792
tar 791
▁1958 791
▁1959 791
▁remov 791
ado 789
▁1957 789
▁Federal 789
▁breed 789
var 788
▁Bell 788
▁Paralympic 788
mark 787
tel 787
titut 787
▁Highway 787
▁Three 787
▁1954 786
▁extend 786
light 785
nny 785
▁inhabitants 785
▁observ 785
pool 784
▁Early 784
▁Johnson 784
▁Tor 784
▁develop 784
▁upon 784
▁Wil 783
▁call 783
▁information 783
pod 782
▁Cross 782
▁Free 782
▁Metropolitan 782
▁Vietnam 782
▁board 782
▁min 782
known 781
mann 781
▁Romania 781
▁Xbox 781
▁collection 781
▁greatest 781
90 780
hop 780
▁Revolution 780
▁passenger 780
13 779
fic 779
▁Bout 779
phone 778
▁Chief 778
▁rivers 778
core 777
spite 777
▁provinces 777
▁Sydney 775
▁Taiwan 775
▁too 774
16 773
▁Born 773
▁Fort 773
▁Mississippi 773
▁Met 772
▁Pen 772
▁Singapore 772
▁Supreme 772
▁Brown 771
▁— 771
CW 770
born 770
▁Medal 770
▁campaign 769
▁cast 769
bel 768
wan 768
▁Assembly 768
▁Girl 768
▁Mont 768
▁shot 768
▁wave 768
▁Cho 767
▁Good 767
▁Not 767
▁believ 767
▁basket 766
▁colon 766
▁accept 765
▁travel 765
67 764
78 764
▁deriv 764
▁towns 764
dale 763
▁Ab 763
▁certain 763
▁resign 763
91 762
nic 762
▁hours 762
lone 761
ought 760
▁Ten 760
▁suggest 760
83 759
anda 759
▁Ban 759
▁Nations 759
▁amount 759
ena 758
right 758
▁1946 758
▁Festival 758
▁bomb 758
▁promot 758
▁provide 758
80 757
cular 756
hal 756
water 756
▁Oxford 756
▁reason 756
▁Wikipedia 755
▁store 755
▁succeed 755
ability 754
ept 754
stein 754
▁Hamilton 754
82 753
94 753
▁Lady 753
▁dead 753
▁figure 753
▁suburb 753
ama 752
tun 752
▁Fri 752
71 751
aff 751
cast 751
ommonwealth 751
▁1955 751
▁Norwa 751
▁draw 751
▁eighth 751
▁formal 751
▁label 751
▁Alaska 750
▁buildings 750
▁buri 750
▁murder 750
11 748
▁Cro 748
▁arriv 748
▁gain 748
▁gene 748
▁solo 748
▁Gold 747
.1 746
ack 745
▁Ham 745
▁Societ 745
▁manager 745
▁Wisconsin 744
▁media 744
ima 743
last 743
▁Coast 743
▁Colorado 743
▁Ford 743
▁army 743
▁Miss 742
▁console 742
▁los 742
gun 741
▁Str 741
▁USA 741
▁decided 741
▁ob 741
▁= 740
▁Gri 740
▁Polish 740
▁Sri 740
▁wind 740
79 739
▁Camp 739
▁council 739
awa 738
chan 738
ification 738
▁Later 738
▁More 738
▁animated 738
19 737
nar 737
rather 737
▁deal 737
▁Ever 736
89 735
▁Melbourne 735
▁Today 735
▁fac 735
▁Stan 734
▁rain 734
63 733
view 733
▁complex 733
▁possible 733
84 732
▁Inter 732
▁Rob 732
▁Sand 732
72 731
▁Bol 731
▁interest 731
▁Kat 730
▁belong 730
▁say 730
▁Arts 729
▁Gro 729
▁del 729
▁operat 729
▁shark 729
▁... 728
▁Reg 728
▁Gulf 727
▁x 727
ski 726
stream 726
▁Bull 726
▁Duck 726
▁UEFA 726
68 725
wo 725
▁1944 725
oid 724
▁happen 724
▁religion 724
▁status 724
62 723
▁Jean 722
▁piano 722
▁variet 722
lla 721
▁Piquet 721
▁viol 721
rought 720
▁Part 720
▁Sim 720
gon 719
▁Ram 719
▁Wall 719
▁employ 719
▁footballer 719
▁nearly 719
matic 718
▁Albert 718
▁Walt 718
▁twice 718
▁wing 718
gel 717
▁captur 717
▁scale 717
▁boy 716
▁except 716
▁positive 716
designated 715
▁camp 715
▁distance 715
▁earlier 715
▁distinct 714
▁sexual 714
▁1953 713
▁Hamp 713
▁Mag 713
▁extra 713
▁farm 713
▁gun 713
▁soon 713
▁Cu 712
▁Iran 712
▁Yo 712
▁franchise 711
▁Anne 710
▁Band 710
▁compete 710
nother 709
▁Down 709
▁Office 709
▁Senator 709
▁trad 709
operating 708
▁par 708
▁arrondissement 707
▁carbon 707
▁connect 707
▁self 707
▁upper 707
tting 706
▁Alexander 706
▁Tro 706
▁mayor 706
▁museum 706
▁creat 705
▁founder 705
▁propos 705
▁saw 705
▁Azerbaijan 704
▁Follow 704
▁document 704
▁done 704
▁minister 704
▁via 704
▁Indonesia 703
▁Like 703
▁channel 703
▁lives 703
▁older 703
ene 702
ify 702
▁Mur 702
▁income 702
▁oil 702
jan 701
▁Detroit 701
osaur 700
▁Borough 700
▁Op 700
▁Ye 700
▁organiz 700
▁poet 700
ase 699
98 698
▁Stra 698
▁Swa 698
rick 697
▁Mr 696
▁issue 696
▁look 695
▁matche 695
▁plan 695
▁smallest 695
09 694
action 694
▁1939 694
▁Cape 694
▁Rio 694
▁opening 694
mble 693
run 693
▁Actor 693
graph 692
script 692
▁Bat 692
▁Theatre 692
idae 691
▁institution 691
▁acting 690
▁commune 690
▁sing 690
▁Boeing 689
▁Labour 689
▁box 689
▁manufactur 689
▁professor 689
73 688
rb 688
ó 688
▁Louisiana 688
▁fr 688
▁issued 688
▁true 688
▁Turkey 687
▁Mah 686
▁Mus 686
▁fla 686
▁playoff 686
▁running 686
nie 685
▁determin 685
▁text 685
▁thus 685
▁Pat 684
▁relationship 684
25 683
▁Peninsula 683
▁ago 683
74 682
▁subject 682
75 681
▁60 681
▁begin 681
▁motor 681
▁Stone 680
cut 679
▁1942 679
▁Greece 679
▁kill 679
▁yards 679
yan 678
▁Cam 678
▁Microsoft 678
▁Sil 678
▁baseball 678
▁partner 678
▁races 678
▁longer 677
▁crime 676
▁titles 676
atomic 675
rian 675
▁Mid 675
▁table 675
▁Dynasty 674
▁practice 674
ero 673
▁Indiana 673
▁little 673
▁plane 673
HL 672
▁chief 672
▁heat 671
cia 670
▁Actress 670
meter 669
▁Baltimore 669
▁Denmark 669
58 668
▁Dakota 668
▁Emperor 668
▁Khan 668
▁nickname 668
▁pair 668
▁route 668
300 667
hood 666
star 666
▁1951 666
▁grew 666
agh 665
▁affect 665
▁separat 665
▁wall 665
cop 664
wing 664
▁Ali 664
▁Picture 664
▁cru 664
▁machine 664
▁Apple 663
▁carri 663
▁eye 663
▁speed 663
kov 662
▁forest 662
▁money 662
▁Scott 661
▁deliver 661
ich 660
▁Age 660
▁Belgium 660
▁Municipality 660
▁Nazi 660
▁executive 660
night 659
▁Dun 659
▁learn 659
based 658
▁Bush 658
▁wood 658
ita 657
kan 657
ood 657
▁Director 657
▁youngest 657
70 656
mission 656
mouth 656
ón 656
▁1928 656
▁Draft 656
▁Gall 656
▁share 656
CC 655
▁origin 655
oon 654
▁Cap 654
▁humans 654
▁universities 654
▁Connecticut 653
▁Tennessee 653
▁cur 653
▁elections 653
52 652
▁Cambridge 652
▁Hindu 652
▁eleven 651
▁loss 651
▁medical 651
▁poly 651
▁religious 651
▁tornado 651
▁factor 650
▁taking 650
door 649
▁/ 649
▁lines 649
▁transport 649
▁Vice 648
▁industry 648
▁stand 648
sey 647
▁device 647
▁nuclear 647
▁Brad 646
▁Sports 646
▁conductor 646
▁reign 646
aya 645
wick 645
▁paper 645
21 644
▁Caribbean 644
▁Network 644
▁deep 644
▁print 644
roll 643
▁+ 643
▁Trans 643
▁method 643
▁settl 643
▁tru 643
▁Commission 642
▁racing 642
▁trade 642
▁twenty 642
ographic 641
▁Im 641
rant 640
▁citizen 640
▁closed 640
▁hot 640
▁Blackhawk 639
▁Cuba 639
▁Sub 639
▁adult 639
▁birds 639
▁1941 638
▁Globe 638
▁Labor 638
▁Live 638
.2 637
▁Jud 637
▁Lincoln 637
▁bass 637
▁horse 637
▁purpose 637
▁room 637
▁1936 636
▁Library 636
ography 635
▁Late 634
▁Mir 634
▁Triple 634
▁portion 634
▁severe 634
elle 633
▁Baseball 633
▁data 633
▁towards 633
rill 632
▁Moscow 632
▁Vancouver 632
▁achiev 632
▁rare 632
▁Heart 631
▁Punk 631
probably 630
▁80 630
▁Harry 630
▁landfall 630
▁suffer 630
craft 629
▁Lanka 629
▁Serbia 629
▁Territory 629
▁collect 629
▁starting 629
hall 628
iff 628
▁constitution 628
▁soldier 628
▁Argentina 627
▁Radio 627
▁bus 627
▁whole 627
▁Depression 626
▁broke 626
▁straight 626
▁Dom 625
▁numero 625
ini 624
▁Fre 624
▁Sho 624
▁believe 624
▁Bengal 623
▁Marine 623
▁heavy 623
▁prov 623
▁Emmy 622
▁association 622
▁athlete 622
▁govern 622
▁Reagan 621
▁divorc 621
▁stay 621
▁Way 620
-20 619
▁Sunday 619
60 618
▁dance 618
▁shoot 618
pul 617
sburg 617
01 616
▁Anti 616
▁Portuguese 616
▁Dream 615
▁ask 615
▁cost 615
▁induct 615
▁jump 615
▁split 615
.0 614
▁guitarist 614
▁cut 613
▁independence 613
▁prison 613
ata 612
▁inside 612
tte 611
▁Monte 611
▁32 610
▁Char 610
▁Federation 610
▁Lind 610
▁Ray 610
” 609
▁Count 609
▁Hong 609
▁fail 609
▁score 609
> 608
▁Andrew 608
▁Montrea 608
▁Orthodox 608
▁reduc 608
heim 607
▁Brit 607
▁Rose 607
▁cases 607
–20 606
▁card 606
▁express 606
▁owner 606
▁1918 605
▁Bab 605
▁Christmas 605
▁Fair 605
▁philosoph 605
64 604
▁bronze 604
▁fast 604
▁originat 604
▁page 604
RI 603
▁500 603
▁Quebec 603
▁molecule 603
▁Railway 602
▁cultural 602
▁shar 602
▁Palm 601
kar 600
ora 600
songwriter 600
▁future 600
▁physical 600
▁changes 599
▁drive 599
▁measure 599
▁morning 599
▁standing 599
-1 598
▁737 598
ennis 597
gram 597
▁Cena 597
▁Chile 597
▁DNA 597
▁Family 597
▁Hart 597
▁direction 597
▁directly 597
▁mission 597
▁plann 597
▁vehicle 597
▁Ash 596
▁mammal 596
▁“ 596
ode 595
▁Times 595
▁block 595
▁coin 595
▁infection 595
▁Afghanistan 594
▁brain 594
▁portray 594
▁Arizona 593
▁scor 593
▁End 592
▁says 592
RA 591
she 591
▁Palace 591
▁Space 591
▁Wild 591
▁concept 591
▁cra 591
▁fat 591
▁pole 591
▁responsib 591
mont 590
▁1922 590
▁Oregon 590
lov 589
wich 589
▁compani 589
▁invent 589
96 588
▁Joe 588
▁focus 588
▁react 588
▁Fran 587
▁era 587
▁valley 587
< 586
▁create 586
▁Austrian 585
▁Islam 585
▁health 585
▁Wind 584
▁protein 584
arian 583
ique 583
▁advanc 583
▁foot 583
▁Rod 582
▁Six 582
▁adj 582
▁improv 582
▁Daniel 581
▁Tar 581
▁Tokyo 581
▁arch 581
▁settlement 581
lob 580
place 580
rgy 580
▁CBS 580
▁Mayor 580
▁Tamil 580
▁arrest 580
▁emerg 580
RC 579
rang 579
▁Sar 579
▁mark 579
▁1938 578
▁auto 578
▁environment 578
▁epi 578
▁fiction 578
▁1937 577
▁Corporation 577
▁Phil 577
▁hospital 577
abad 576
eb 576
terior 576
▁Symphon 576
▁add 576
▁describe 576
▁micro 576
gent 575
▁Bureau 575
▁Fire 575
▁Houston 575
▁Internet 575
▁Sur 575
▁quickl 575
▁Shan 573
▁animal 573
▁flower 573
▁sitcom 573
▁touchdown 573
▁Mike 572
▁Philip 572
▁access 572
▁respectively 572
▁Eu 571
▁Tony 571
▁winter 571
37 570
▁Turn 570
▁continue 570
▁frog 570
II 569
▁Chris 569
▁Kennedy 569
▁multiple 569
▁regional 569
▁consecutive 568
ott 567
▁35 567
06 566
▁account 566
▁demo 566
▁moon 566
▁ski 566
▁teacher 566
▁agent 565
mini 564
tress 564
▁1929 564
▁Jane 564
▁Liberal 564
▁Roll 564
▁vocal 564
ception 563
▁Clark 563
▁grant 563
▁evidence 562
▁already 560
▁job 560
▁shape 560
▁Doctor 559
▁Ukraine 559
▁senior 559
aware 558
▁Hawaii 558
▁slow 558
▁weapon 558
iya 557
▁Opera 557
▁royal 557
▁1933 556
▁platform 556
▁sum 556
▁virus 556
etic 555
ound 555
raw 555
▁1934 555
▁Bible 555
AA 554
▁IV 554
▁Max 554
▁appli 554
▁Station 553
▁Vol 553
▁climate 553
▁decade 553
▁fictional 553
▁think 553
▁write 553
▁entr 552
▁construct 551
▁fough 551
▁mean 551
▁monarch 551
rush 550
▁1926 550
▁Honor 550
▁Jones 550
▁connected 550
▁volume 550
.3 549
ili 549
▁Command 549
▁Motor 549
▁step 549
duction 548
▁70 548
▁Arthur 548
▁Inc 548
▁Sav 548
▁construction 548
▁mode 548
03 547
5,000 547
▁Francis 547
▁Mexican 547
▁Ross 547
▁category 547
▁1900 546
▁Egyptian 546
▁Even 546
▁Whi 546
35 545
▁Also 545
▁Angel 545
▁chain 545
▁notable 545
▁tradition 545
air 544
chen 544
▁Mill 544
▁immediate 544
▁spread 544
▁stop 544
▁told 544
rum 543
▁Arabia 543
▁Carl 543
▁Holy 543
▁violin 543
▁1924 542
▁34 542
▁Hospital 542
▁Member 542
▁keep 542
▁command 541
▁retain 541
▁tax 541
▁Forest 540
▁carrier 540
▁chosen 540
▁going 540
▁slave 540
ologist 539
▁1943 539
▁Justice 539
▁Original 539
▁recent 539
▁reveal 539
▁root 539
▁64 538
▁Category 538
▁Ci 538
▁fruit 538
▁participated 538
▁rival 538
▁Asian 537
▁Dor 537
27 536
IC 536
gna 536
▁Miami 536
▁clear 536
bun 535
▁Princess 535
▁Tower 535
▁meet 535
▁nearby 535
▁Of 534
▁poor 534
45 533
work 533
▁Orton 533
▁boundar 533
▁distribution 533
eng 532
▁Cli 532
▁Single 532
▁strengthen 532
law 531
▁400 531
▁Master 531
▁Vienna 531
.6 530
broad 530
ona 530
▁Marie 530
▁eat 530
▁engines 530
▁ocean 530
49 529
▁drug 529
▁maintain 529
▁median 529
▁sun 528
▁ABC 527
▁Sol 527
▁earliest 527
▁lot 527
ivity 526
new 526
ulf 526
▁DVD 526
▁Heritage 526
▁alternative 526
▁difference 526
▁genera 526
▁student 526
▁percent 525
▁spring 525
▁Human 524
▁Kim 524
▁guest 524
▁wild 524
count 523
▁Cop 523
▁arrang 523
▁limit 523
▁seed 523
.8 522
ami 522
▁ninth 522
▁turned 522
▁Eli 521
▁Hunt 521
▁festival 521
▁surround 521
28 520
▁Arab 520
▁Hay 520
▁mini 520
▁painting 520
▁yellow 520
▁Bor 519
▁Brother 519
▁Norman 519
▁mention 519
? 518
nan 518
▁1921 518
▁CD 518
▁Pittsburgh 518
▁Sever 518
▁credit 518
▁foreign 518
▁rough 518
fu 517
▁Order 517
▁manag 517
▁mixed 517
05 516
▁360 516
▁Bob 516
▁Roger 516
▁Wimble 516
▁circuit 516
▁domestic 516
▁prepar 516
▁sex 516
▁Bach 515
▁dialect 515
▁industrial 515
▁1919 514
▁Memorial 514
▁Seven 514
▁electro 514
▁identifi 514
▁negative 514
▁surrounding 514
▁talk 514
▁tributar 514
▁33 513
▁Castle 513
▁cousin 513
▁joint 513
▁magnetic 513
▁problems 513
▁reviews 513
rand 512
▁Kha 512
▁experience 512
▁hop 512
▁literature 512
▁receive 512
▁Kelly 511
▁display 511
▁rail 511
▁ref 511
▁reference 511
39 510
▁Dark 510
▁Field 510
▁expect 510
▁facilit 510
▁pitch 510
▁tea 510
▁Cle 509
▁Hal 509
án 508
▁Rand 508
▁rapid 508
▁Bad 507
▁Well 507
▁challeng 507
▁economy 507
Z 506
▁Colon 506
▁Steve 506
▁captain 506
▁combined 506
▁flu 506
▁moving 506
▁normal 506
▁prominent 506
▁qualify 506
02 505
43 505
▁Ac 505
▁Gen 505
▁assist 505
▁brief 505
▁genre 505
▁troops 505
▁1932 504
▁Alice 504
▁Hollywood 504
▁Pradesh 504
▁Rights 504
▁treatment 504
04 503
▁downgrad 503
▁lowest 503
▁row 503
▁schedul 503
▁specific 503
▁1935 502
▁Bern 502
▁Cast 502
▁Hor 502
▁Tur 502
▁meeting 502
29 501
Q 501
▁comic 501
▁highly 501
▁weaken 501
Each 500
tended 500
▁Jim 500
▁Mun 500
▁Queensland 500
▁historic 500
▁inspir 500
32 499
▁Adams 499
western 498
–1 498
▁Dominican 498
▁Got 498
▁edge 498
▁parliament 498
08 497
chu 497
▁decision 497
▁feed 497
▁personal 497
▁spell 497
DS 496
▁Donald 496
▁NBC 496
▁Nico 496
▁Sin 496
▁explor 496
lash 495
type 495
▁Michel 495
▁Rh 495
▁fill 495
▁strike 495
▁Cathedral 494
▁Persian 494
▁abbreviat 494
▁equation 494
▁opposite 494
▁whether 494
SU 493
▁90 493
▁Atlanta 493
▁Merc 493
▁Munich 493
▁cold 493
▁course 493
.4 492
9 492
▁Conservative 492
▁WWF 492
▁winds 492
oso 491
▁1917 491
▁Portug 491
▁carry 491
▁holiday 491
▁leav 491
▁northeastern 491
▁Lion 490
▁Education 489
▁fossil 489
▁know 489
▁1912 488
▁alphabet 488
▁string 488
▁theatre 488
▁Taylor 487
▁Upper 487
▁iPhone 487
▁simple 487
duct 486
oxide 486
▁MP 486
▁Metro 486
▁Peace 486
▁Point 486
▁Public 486
▁Shar 486
▁constant 486
▁Junior 485
▁translat 485
gl 484
▁Power 484
▁Work 484
▁corner 484
▁dedicat 484
▁flat 484
200 483
ander 483
continental 483
▁Both 483
▁Medicine 483
▁accident 483
▁difficult 483
▁temple 483
▁Helen 482
▁Var 482
▁classical 482
▁execut 482
▁image 482
▁question 482
.7 481
▁Mat 481
▁bacteria 481
found 480
▁1925 480
▁bird 480
▁depend 480
▁digital 480
▁dynasty 480
▁install 480
▁sales 480
▁therefore 480
ão 479
▁Board 479
▁layer 479
▁quarter 479
MA 478
▁Hawk 478
▁Sky 478
▁dark 478
▁dy 478
▁minutes 478
93 477
▁Cur 477
▁southeastern 477
ffe 476
misphere 476
▁1923 476
▁Arkansas 476
▁Nick 476
▁basi 476
▁conference 476
▁couple 476
▁liquid 476
▁skin 476
goes 475
ridge 475
▁Pop 475
posed 474
▁Country 474
▁Historic 474
▁Pass 474
▁Sound 474
▁editor 474
▁safe 474
▁strip 474
▁vector 474
ç 473
▁disorder 473
▁extinct 473
▁fo 473
▁roll 473
▁website 473
bility 472
hang 472
▁Jordan 472
▁feet 472
▁limited 472
▁powerful 472
▁rich 472
▁Bou 471
▁Yorkshire 471
▁medi 471
▁zone 471
▁Beau 470
▁Colombia 470
▁Form 470
▁qualifie 470
hand 469
▁Dallas 469
▁Hav 469
▁Nat 469
▁Selena 469
▁closely 469
▁hill 469
▁latter 469
▁scene 469
bol 468
▁Alberta 468
▁DS 468
▁expand 468
▁things 468
▁training 468
▁Who 467
▁1931 466
▁About 466
▁Common 466
▁Cook 466
▁ethnic 466
▁extreme 466
▁stone 466
ñ 465
▁Euro 465
▁Hebrew 465
▁Light 465
▁Lower 465
▁Sel 465
▁convict 465
▁fresh 465
▁occupie 465
▁prior 465
pol 464
stad 464
▁Alex 464
▁iOS 464
▁occurred 464
where 463
▁Orange 463
▁bad 463
▁capacit 463
▁exchange 463
▁Jenn 462
▁additional 462
▁poem 462
ula 461
▁twelve 461
▁twin 461
elli 460
ré 460
▁Democrat 460
▁Maryland 460
▁Mass 460
▁crash 460
▁spot 460
▁street 460
▁trial 460
library 459
state 459
zu 459
▁Mediterranean 459
▁Peru 459
▁property 459
▁try 459
hill 458
▁Garden 458
▁Professor 458
▁Square 458
▁care 458
osis 457
▁1908 457
▁Arabic 457
▁Leader 457
▁architecture 457
▁bone 457
RT 456
▁1927 456
▁Jews 456
▁weight 456
chlor 455
▁Brun 455
▁eggs 455
▁iron 455
▁operate 455
▁purchas 455
▁studie 455
24 454
▁lung 454
▁secur 454
31 453
SE 453
▁Kashmir 453
▁Pur 453
▁adapt 453
▁centuries 453
▁rise 453
▁script 453
fare 452
▁Iraq 452
▁contest 452
▁critical 452
▁stories 452
bach 451
gle 451
▁41 451
▁Nam 451
▁Steven 451
▁chairman 451
▁plate 451
23 450
61 450
late 450
▁Corps 450
▁dropp 450
▁municipalit 450
▁themselves 450
▁Prefecture 449
▁Raj 449
▁build 449
▁equivalent 449
▁growing 449
▁mouth 449
▁Convention 448
▁Hungar 448
▁Studio 448
▁WrestleMania 448
▁problem 448
26 447
eval 447
lesi 447
nova 447
▁Imperial 447
▁Rica 447
▁Swiss 447
▁genetic 447
▁software 447
aries 446
unk 446
▁Athletic 446
▁colour 446
▁convention 446
▁cre 446
▁legislature 446
22 445
board 445
▁AD 445
▁Bang 445
▁Lang 445
▁Television 445
▁format 445
▁largely 445
▁sequence 445
▁tribe 445
▁Buddhis 444
▁Giants 444
▁Johann 444
▁Matt 444
▁Tag 444
▁certifi 444
▁evening 444
ada 443
och 443
truck 443
▁Alli 443
▁Anna 443
▁Costa 443
▁Foundation 443
▁financial 443
▁mainland 443
▁matter 443
▁neighborhood 443
▁temp 443
▁Amendment 442
▁Capital 442
▁Ronald 442
Treaty 441
▁nature 441
▁sat 441
tsu 440
▁Drama 440
▁Earl 440
▁distribut 440
▁failure 440
▁medium 440
▁successor 440
▁45 439
▁Police 439
▁What 439
▁bit 439
▁dam 439
▁photo 439
▁sand 439
▁Web 438
▁fastest 438
▁mythology 438
utonomous 437
▁Alexandr 437
▁Clo 437
▁ballet 437
▁eliminat 437
▁fuel 437
▁secret 437
41 436
maker 436
▁Communist 436
▁fun 436
▁mono 436
▁scholar 436
▁transferr 436
▁Armenia 435
▁Bishop 435
▁Kil 435
▁Your 435
▁cloth 435
▁exact 435
▁Death 434
▁Knight 434
▁Lewis 434
▁Support 434
▁chromosome 434
▁unique 434
ddy 433
▁Phoenix 433
eller 432
▁Armenian 432
▁Basket 432
▁Brooklyn 432
▁Racing 432
▁Turkish 432
▁bio 432
▁oxide 432
36 431
ali 431
anning 431
▁Belgian 431
▁Davis 431
▁chamber 431
▁crown 431
asa 430
▁Ball 430
▁Bruins 430
▁creation 430
▁cricket 430
▁Norwegian 429
▁Rhode 429
▁Shah 429
▁address 429
▁experiment 429
▁hundred 429
▁marked 429
establish 428
▁Iron 428
▁Kin 428
▁Stockholm 428
▁angle 428
▁pilot 428
ashi 427
sign 427
▁cathedral 427
▁nitr 427
▁Austin 426
▁Research 426
▁Solar 426
▁convert 426
▁daily 426
▁hip 426
▁physics 426
É 425
▁1910 425
▁Back 425
▁Nepal 425
▁authority 425
▁fair 425
▁might 425
▁solid 425
,500 424
▁bill 424
▁hair 424
▁prevent 424
mel 423
▁39 423
▁Ir 423
▁Main 423
▁Robinson 423
▁Stephen 423
▁Tele 423
▁chemist 423
▁Saturday 422
▁cook 422
▁exhibit 422
▁map 422
▁salt 422
zar 421
▁Frederick 421
▁Ice 421
▁Statistical 421
▁basic 421
▁dry 421
kept 420
▁Arena 420
▁bring 420
▁response 419
▁scientific 419
▁threat 419
▁union 419
▁Interstate 418
▁approv 418
▁formation 418
▁garden 418
▁respect 418
▁southwestern 418
▁Moon 417
▁highway 417
▁northwestern 417
▁tenth 417
▁tourist 417
▁watch 417
race 416
▁Add 416
▁Cleveland 416
▁Gor 416
▁Player 416
▁Qua 416
▁component 416
▁doctor 416
▁hall 416
▁master 416
Between 415
TA 415
▁Liver 415
▁sugar 415
EC 414
▁43 414
▁picture 414
arm 413
lew 413
▁37 413
▁Puerto 413
scope 412
▁75 412
▁Croatia 412
▁Madrid 412
▁Modern 412
▁Welsh 412
▁teen 412
eldest 411
▁cycle 411
▁distinguish 411
▁lap 411
.9 410
chester 410
▁49 410
▁Chess 410
▁Edinburgh 410
▁Jeff 410
▁Jun 410
▁Lau 410
▁Tel 410
▁commission 410
▁floor 410
▁judge 410
▁passe 410
▁psycho 410
point 409
▁Dead 409
▁Den 409
▁drop 409
▁height 409
▁literal 409
▁relation 409
TV 408
room 408
standing 408
▁Centre 408
▁Diego 408
▁evolution 408
speak 407
▁Last 407
▁Site 407
▁burn 407
▁coastal 407
▁correspond 407
▁drummer 407
▁easi 407
▁slight 407
app 406
▁Canadiens 406
▁Manhattan 406
▁measur 406
▁permanent 406
▁recently 406
band 405
ira 405
amus 404
body 404
▁Douglas 404
▁Hell 404
▁Off 404
▁Simpson 404
▁Special 404
▁Tam 404
▁concentration 404
▁giving 404
▁speech 404
▁zero 404
Jerusalem 403
enberg 403
ntil 403
wide 403
▁Rick 403
▁Socialist 403
▁Virgin 403
▁belief 403
▁cit 403
▁classified 403
▁solution 403
33 402
izz 402
obi 402
▁Birmingham 402
▁Five 402
▁Jose 402
▁Strait 402
▁astronom 402
▁effort 402
▁organisation 402
▁poll 402
▁taught 402
stroke 401
▁OS 401
▁bound 401
▁moment 401
▁nucl 401
▁Buck 400
▁Trophy 400
▁administration 400
▁lack 400
▁prize 400
▁rating 400
morph 399
å 399
▁Charlotte 399
▁Hardy 399
▁Head 399
▁communities 399
▁obtain 399
▁peninsula 399
aught 398
ín 398
▁Pet 398
▁coming 398
▁participat 398
▁provincial 398
▁1916 397
▁36 397
▁Creek 397
▁Nash 397
▁Temple 397
▁architect 397
▁dinosaur 397
▁photograph 397
▁tube 397
▁Slam 396
▁folk 396
▁naming 396
uri 395
▁Thailand 395
▁Wayne 395
▁concerto 395
▁populat 395
34 394
feld 394
▁Burn 394
▁hunt 394
▁soundtrack 394
take 393
▁Classic 393
▁UN 393
▁effective 393
▁fund 393
▁suit 393
▁teaching 393
hem 392
mine 392
▁Carlo 392
▁constellation 392
▁definition 392
▁diagnos 392
▁galax 392
▁global 392
▁potential 392
▁pronounc 392
▁secondary 392
▁throw 392
▁Cardinal 391
▁Chu 391
▁Coll 391
▁Islamic 391
▁Now 391
▁contribut 391
▁downtown 391
▁drink 391
▁growth 391
▁iPad 391
▁jazz 391
▁press 391
▁stock 391
▁thousand 391
▁Manitoba 390
▁Utah 390
▁catch 390
▁oxygen 390
▁throne 390
▁yet 390
haps 389
▁Nannin 389
▁Ottawa 389
▁Wilson 389
▁earthquake 389
▁normally 389
▁uncle 389
daho 388
▁1911 388
▁Christoph 388
▁Warner 388
▁Zu 388
▁honour 388
▁Ferrari 387
▁Juan 387
▁assistant 387
▁composition 387
▁elector 387
▁electronic 387
▁tower 387
▁Allen 386
▁Manil 386
▁Rhine 386
▁Silver 386
▁elevat 386
▁frequently 386
▁signal 386
▁1914 385
▁descend 385
▁progress 385
▁walk 385
▁favor 384
▁reserve 384
▁Belarus 383
▁VI 383
▁application 383
▁warm 383
CO 382
▁Margaret 382
▁Social 382
▁grow 382
▁satellite 382
rio 381
▁Epi 381
▁compar 381
▁extensive 381
▁wear 381
ault 380
ika 380
▁Ancient 380
▁collaborat 380
▁concern 380
▁plain 380
itude 379
mount 379
▁Captain 379
▁Eric 379
▁Lithuania 379
▁Parish 379
▁hub 379
▁shore 379
▁EP 378
▁Friday 378
▁Rangers 378
▁Alfred 377
▁conflict 377
▁currenc 377
▁weather 377
▁Broadway 376
▁Kh 376
▁engineering 376
▁mosque 376
dependent 375
–18 375
▁Post 375
▁comment 375
▁invasion 375
▁spirit 375
PA 374
▁Antarctic 374
▁Communit 374
▁Congo 374
▁activity 374
▁basin 374
▁kingdom 374
▁republic 374
▁vice 374
eastern 373
pra 373
▁Native 373
▁bodies 373
▁combination 373
▁dollar 373
▁litera 373
▁oppos 373
▁sentenc 373
▁traffic 373
▁universe 373
taker 372
▁Brand 372
▁Story 372
▁Turk 372
▁academic 372
▁consum 372
▁manage 372
▁occasional 372
▁programm 372
Ar 371
quin 371
▁Nag 371
▁argu 371
▁colony 371
▁runner 371
▁− 371
100 370
AC 370
ô 370
▁Murray 370
▁Qui 370
▁journalist 370
▁peace 370
class 369
viation 369
ć 369
▁Record 369
▁USD 369
▁circle 369
▁scientist 369
▁Call 368
▁Harris 368
▁Maine 368
BE 367
SP 367
▁Buffalo 367
▁Building 367
▁Hard 367
▁Lancas 367
▁bishop 367
▁custom 367
▁society 367
▁technique 367
word 366
▁ceremony 366
▁narrow 366
▁replace 366
▁soil 366
adventure 365
down 365
▁Lawrence 365
▁castle 365
▁controlled 365
▁mill 365
▁recognis 365
▁stopp 365
▁Glen 364
▁Haiti 364
▁Patrick 364
▁Shin 364
▁declin 364
▁fellow 364
▁tissue 364
ER 363
▁compared 363
▁content 363
▁prop 363
▁Know 362
▁Gene 361
▁Potter 361
▁Syria 361
▁column 361
▁exception 361
▁hydrogen 361
Ö 360
▁1905 360
▁Fra 360
▁commander 360
▁presen 360
▁ranking 359
FL 358
stre 358
visible 358
▁Rub 358
▁Wolf 358
▁immun 358
▁lyrics 358
▁search 358
▁zoo 358
fish 357
▁1901 357
▁Hat 357
▁Jan 357
▁Seattle 357
▁Thi 357
▁Ukrainian 357
nniversar 356
▁Apollo 356
▁Gregor 356
▁representative 356
▁sole 356
▁Jefferson 355
▁Pala 355
▁copy 355
▁involve 355
▁junior 355
▁programme 355
▁territories 355
▁Chamber 354
▁Guinea 354
▁Nigeria 354
▁comedian 354
▁refus 354
▁stat 354
century 353
▁Antonio 353
▁Batman 353
▁Bernard 353
▁Regional 353
▁thirteen 353
▁Airb 352
▁Economic 352
▁volcano 352
▁PC 351
▁Yankee 351
▁agreed 351
▁fell 351
▁metres 351
▁sail 351
▁traditionally 351
aire 350
borg 350
gency 350
mpress 350
season 350
▁Cricket 350
▁Kent 350
▁Sarah 350
▁freestyle 350
▁neighbour 350
▁vocalist 350
tropical 349
ū 349
▁Media 349
▁Walter 349
▁agreement 349
▁sense 349
History 348
MI 348
ordinat 348
position 348
▁Edge 348
▁Pont 348
▁atmosphere 348
▁bright 348
▁fashion 348
£ 347
▁Beijing 347
▁Tampa 347
▁busie 347
▁harm 347
▁hotel 347
▁soft 347
▁steel 347
▁Carroll 346
▁Cole 346
▁Finnish 346
▁Kra 346
▁Lou 346
▁Ravens 346
▁acquired 346
▁boat 346
▁mineral 346
▁nucleus 346
▁theater 346
â 345
▁Cru 345
▁Indo 345
▁Short 345
▁cycl 345
▁densit 345
▁goddess 345
▁monitor 345
▁motion 345
▁politic 345
▁reviv 345
▁technology 345
NC 344
▁Southeast 344
▁demand 344
▁dominat 344
▁educat 344
▁continuous 343
▁flood 343
▁neutron 343
media 342
▁Bear 342
▁Development 342
▁Place 342
▁Wei 342
▁contact 342
▁explain 342
▁Athens 341
▁Isle 341
▁Jam 341
▁Range 341
▁contrast 341
▁notabl 341
▁preserv 341
▁substance 341
▁Entr 340
▁Kid 340
▁punk 340
▁remember 340
▁Anglican 339
▁Anthon 339
▁Christianity 339
▁Cruz 339
▁Fun 339
▁Philippine 339
▁Saudi 339
▁Simon 339
▁Total 339
▁attract 339
▁exclusive 339
WA 338
ampton 338
gni 338
order 338
▁Ballet 338
▁Celtic 338
▁Petersburg 338
▁Technolog 338
▁continent 338
SA 337
▁Dublin 337
▁contemporar 337
▁detect 337
▁fourteen 337
▁retirement 337
cott 336
grad 336
scribe 336
▁Fred 336
▁Hudson 336
▁Lieutenant 336
▁Tibet 336
▁dissolv 336
▁municipal 336
▁protest 336
▁skat 336
▁Danish 335
▁Kenya 335
▁Madison 335
▁Orleans 335
▁Westminster 335
▁phrase 335
borough 334
bridge 334
ddle 334
▁1903 334
▁Advance 334
▁Camero 334
▁Gate 334
▁Mega 334
▁Milan 334
▁dominant 334
▁insects 334
▁Matthew 333
▁Tyr 333
▁approach 333
▁batter 333
▁bond 333
▁reform 333
book 332
pop 332
quest 332
▁1896 332
▁Artist 332
▁Clinton 332
▁Foreign 332
▁Industr 332
▁Moore 332
▁TNA 332
▁download 332
▁earth 332
▁parallel 332
▁principle 332
▁shell 332
ا 331
▁Cooper 331
▁Dean 331
▁List 331
▁Saturn 331
▁athletic 331
▁desert 331
▁engag 331
▁fur 331
▁sponsor 331
IS 330
ST 330
yond 330
▁Auto 330
▁Barcelona 330
▁restaurant 330
aceae 329
▁Brian 329
▁Dick 329
▁Hungarian 329
▁Jupiter 329
▁Magn 329
▁Medical 329
▁Obama 329
▁adaptation 329
▁license 329
▁promotion 329
▁sample 329
ú 328
▁Bobb 328
▁Brook 328
▁Horn 328
▁Kal 328
▁contestant 328
▁impact 328
▁magn 328
▁reflect 328
outh 327
▁Emil 327
▁Iceland 327
▁Messi 327
▁Oscar 327
▁detail 327
▁1906 326
▁meant 326
▁sentence 326
▁shut 326
▁thirty 326
cept 325
▁1907 325
▁1909 325
▁1913 325
▁Express 325
▁Salt 325
▁Video 325
▁entitl 325
▁hydro 325
▁increasing 325
▁lit 325
▁subtropic 325
▁Columbus 324
▁Hitler 324
▁Performance 324
▁Test 324
▁maximum 324
▁pattern 324
▁stretch 324
range 323
▁Bryan 323
▁Calgary 323
▁Gordon 323
▁Muhammad 323
▁Nevada 323
▁Philharmonic 323
▁Protestant 323
▁prisoner 323
▁register 323
▁Anglo 322
▁Cincinnati 322
▁Dave 322
▁Harvard 322
▁Janei 322
▁comprise 322
▁milk 322
▁phase 322
▁regulat 322
▁repeat 322
▁web 322
Norfolk 321
length 321
š 321
▁Essex 321
▁Nadu 321
▁Rumb 321
▁Santo 321
▁committ 321
▁mechanic 321
▁rural 321
▁setting 321
▁staff 321
load 320
▁Aboriginal 320
▁Affair 320
▁Comedy 320
▁activit 320
▁asteroid 320
▁bottom 320
▁chance 320
▁solar 320
▁Bavaria 319
▁Franklin 319
▁Karl 319
▁Suffolk 319
▁breast 319
▁investigat 319
▁rod 319
▁someone 319
fort 318
level 318
style 318
▁1890 318
▁Adventure 318
▁Disc 318
▁NASCAR 318
▁constituenc 318
▁integer 318
▁mix 318
▁prefecture 318
metre 317
▁Albania 317
▁Chang 317
▁Howard 317
▁amendment 317
▁brown 317
▁characteristic 317
▁file 317
▁publication 317
▁Jimm 316
▁Kill 316
▁gradual 316
▁internal 316
dorf 315
▁Estonia 315
▁Third 315
▁engineer 315
▁necessar 315
▁preced 315
▁properties 315
▁serious 315
▁wealth 315
ł 314
▁Amsterdam 314
▁Berg 314
▁Standard 314
▁attach 314
▁strength 314
▁unknown 314
▁Saxony 313
MC 312
Star 312
▁Chairman 312
▁Health 312
▁Physic 312
▁afternoon 312
▁fifteen 312
▁message 312
▁paint 312
▁recover 312
▁Arctic 311
▁Run 311
▁unusual 311
elected 310
▁Bulgaria 310
▁Delta 310
▁Ryan 310
▁medicine 310
▁protons 310
▁target 310
▁tip 310
▁Front 309
▁Israeli 309
▁Nelson 309
▁elephant 309
▁feel 309
▁perfect 309
▁possess 309
▁seem 309
educational 308
face 308
person 308
▁Titan 308
▁emperor 308
▁Money 307
▁Nik 307
▁Though 307
▁Through 307
▁UNESCO 307
▁Venezuela 307
▁agricultur 307
▁defense 307
▁palace 307
▁whale 307
▁1870 306
▁Movie 306
▁Panther 306
▁Wyoming 306
▁classic 306
▁classification 306
▁prince 306
▁reality 306
master 305
wage 305
▁Crown 305
▁Legend 305
▁Miller 305
▁answer 305
▁interview 305
▁restor 305
▁squad 305
shaw 304
▁Class 304
▁Stock 304
▁leadership 304
▁partial 304
▁weak 304
member 303
▁Edmonto 303
▁Nebraska 303
▁Winnipeg 303
▁feud 303
▁illness 303
▁legend 303
▁strateg 303
osphere 302
▁1915 302
▁Deputy 302
▁Marshall 302
▁Row 302
▁Sprint 302
▁Week 302
▁influential 302
▁price 302
▁restrict 302
▁statue 302
▁tank 302
▁travell 302
General 301
▁1904 301
▁Canton 301
▁Zoo 301
▁destination 301
▁geographical 301
▁rotat 301
nik 300
▁Agency 300
▁Among 300
▁Eight 300
▁Kevin 300
▁Libya 300
▁Seoul 300
▁Speaker 300
▁Victor 300
▁assassinat 300
▁bassist 300
▁giant 300
▁rose 300
▁snow 300
arrow 299
▁1880 299
▁Macedonia 299
▁Rosa 299
▁Rugby 299
▁Steel 299
▁expansion 299
▁keyboard 299
▁priest 299
▁quantit 299
▁switch 299
▁visual 299
▁Blu 298
▁administer 298
▁chest 298
▁indicate 298
▁invit 298
▁lawyer 298
▁quarterback 298
▁sovereign 298
▁specifically 298
▁statistic 298
▁Ivan 297
▁Spirit 297
▁Wright 297
▁conclud 297
▁interpret 297
▁kick 297
▁neck 297
▁save 297
▁Blood 296
▁Glasgow 296
▁Infantry 296
▁Security 296
▁belt 296
▁electrical 296
▁fame 296
▁risk 296
LB 295
nthrop 295
osa 295
▁1861 295
▁Barbara 295
▁Carter 295
▁Malay 295
▁Train 295
▁alcohol 295
▁copper 295
▁estate 295
▁fans 295
▁hir 295
▁minorit 295
▁pregnan 295
▁soap 295
▁swimm 295
language 294
▁Cabinet 294
▁Cather 294
▁Flag 294
▁Henri 294
▁Penn 294
▁Phillip 294
▁Rich 294
▁Twenty 294
▁descen 294
▁muscle 294
minute 293
▁avoid 293
▁complicat 293
▁elder 293
▁illustrat 293
▁meat 293
▁circulat 292
▁dense 292
▁grown 292
▁painter 292
▁transform 292
weight 291
▁Indianapolis 291
▁Joan 291
▁Militar 291
▁Russell 291
▁attention 291
▁choice 291
▁coat 291
▁thick 291
▁variable 291
▁warning 291
ör 290
▁Adam 290
▁Freedom 290
▁Hamburg 290
▁Samuel 290
▁Sindh 290
▁Vegas 290
▁diameter 290
▁naval 290
▁queen 290
eaten 289
▁confus 289
▁guard 289
▁hypothesis 289
▁proper 289
▁reject 289
▁vot 289
+ 288
▁Contest 288
▁Guild 288
▁Jacob 288
▁tract 288
NT 287
hydr 287
▁Cemet 287
▁Touch 287
▁ratifi 287
▁ruler 287
RO 286
title 286
▁Father 286
▁Mali 286
▁Rico 286
▁historian 286
▁pioneer 286
▁pursu 286
▁session 286
▁solv 286
bid 285
▁McG 285
▁Mercury 285
▁residence 285
life 284
quite 284
▁Eurovision 284
▁Libert 284
▁Transport 284
▁Zone 284
▁Hum 283
▁José 283
▁dancer 283
▁discuss 283
▁favour 283
▁guilt 283
▁neuro 283
▁transition 283
nderground 282
▁1889 282
▁Kerala 282
▁massive 282
ASA 281
▁Julian 281
▁driv 281
▁review 281
▁revolution 281
▁romantic 281
▁stable 281
▁suicide 281
▁trail 281
rank 280
▁Aviv 280
▁Denver 280
▁Independenc 280
▁Lev 280
▁Mother 280
▁Organization 280
▁sixteen 280
▁socc 280
400 279
▁Fantasy 279
▁Vermont 279
▁acclaim 279
▁anthem 279
▁constitut 279
▁correct 279
▁theorem 279
▁translation 279
α 278
▁Executive 278
▁Fernand 278
▁cup 278
▁gay 278
▁predict 278
▁subspecies 278
▁temporar 278
▁150 277
▁Holland 277
▁WCW 277
▁Wonder 277
▁evolv 277
▁migrat 277
▁understand 277
▁Airway 276
▁Found 276
▁Midland 276
▁Neu 276
▁Operation 276
▁Trade 276
▁Wings 276
▁chess 276
▁clean 276
▁indicat 276
▁isolat 276
▁uniform 276
▁Authorit 275
▁Bueno 275
▁Children 275
▁Florence 275
▁Portland 275
▁Sierra 275
▁Universal 275
▁defence 275
▁gland 275
▁policy 275
▁radiation 275
▁relat 275
▁Natural 274
▁attraction 274
▁chose 274
▁pull 274
aki 273
▁1895 273
▁1902 273
▁Business 273
▁Luis 273
▁chair 273
▁criminal 273
▁Bahama 272
▁Tiger 272
▁drain 272
▁expos 272
▁memory 272
▁paid 272
▁parent 272
▁resistan 272
clusion 271
▁1850 271
▁Frankfurt 271
▁How 271
▁Monday 271
▁Sudan 271
▁1899 270
▁Kurt 270
▁Owen 270
▁Physiolog 270
▁denomination 270
▁invad 270
▁terminal 270
▁Baker 269
▁Than 269
▁decorat 269
▁occasion 269
▁rapper 269
ocene 268
pike 268
profit 268
trophy 268
▁birthday 268
▁connection 268
▁essential 268
▁heavily 268
hire 267
▁Desert 267
▁Hotel 267
▁Linux 267
▁Montana 267
▁NCAA 267
▁Warwick 267
▁activist 267
▁bull 267
▁dispute 267
▁hypo 267
▁identity 267
▁segment 267
▁sworn 267
▁Avenue 266
▁audience 266
▁immigrant 266
▁legislative 266
▁parliamentar 266
▁symptom 266
▁wound 266
▁Bosnia 265
▁Charli 265
▁Lloyd 265
▁Shakespeare 265
▁contribution 265
▁membrane 265
▁ride 265
jack 264
winning 264
▁Child 264
▁Prior 264
▁abandon 264
▁depict 264
▁recognition 264
▁signature 264
AR 263
ammu 263
read 263
ī 263
▁Slovakia 263
▁behavior 263
▁Bruce 262
▁Derby 262
▁Flor 262
▁Napoleon 262
▁affiliate 262
▁fantasy 262
▁fundamental 262
▁horror 262
▁prais 262
▁situation 262
ancy 261
bird 261
▁Defense 261
▁Lightning 261
▁Sicil 261
▁Testament 261
▁chloride 261
▁herself 261
▁iPod 261
▁imprison 261
▁plus 261
central 260
▁Canucks 260
▁Gabriel 260
▁Geneva 260
▁Horse 260
▁Leonard 260
▁Shir 260
▁Vincent 260
▁inhabit 260
▁pea 260
▁senator 260
▁sulfate 260
▁tiger 260
▁Century 259
▁Latvia 259
▁Mumbai 259
▁advisor 259
▁analysi 259
▁firm 259
▁hid 259
▁instruct 259
▁regime 259
▁supply 259
▁Circle 258
▁Ferr 258
▁McMahon 258
▁Renault 258
▁Snow 258
▁inaugurat 258
▁variant 258
▁Gilbert 257
▁Morgan 257
▁demonstrat 257
▁sleep 257
▁Hull 256
▁Route 256
▁chocolate 256
▁establishment 256
▁geolog 256
▁send 256
▁variation 256
shap 255
▁Benjamin 255
▁Devil 255
▁Harrison 255
▁Naval 255
▁Petr 254
▁apparent 254
▁civilian 254
▁combat 254
▁communication 254
▁Anderson 253
▁Baptist 253
▁Ecuador 253
▁Maple 253
▁appeal 253
▁horn 253
▁modifi 253
▁ultimate 253
▁venue 253
▁BAFTA 252
▁Bundeslig 252
▁Gospel 252
▁Liber 252
▁Maharashtr 252
▁Model 252
▁Next 252
▁accus 252
▁beautiful 252
▁cloud 252
▁crew 252
▁dat 252
▁extension 252
▁possibl 252
▁predecessor 252
▁predominant 252
lap 251
▁1860 251
▁Current 251
▁Northwest 251
▁Slovenia 251
▁Treasur 251
OR 250
caught 250
ë 250
▁Nanc 250
▁buy 250
▁false 250
▁jet 250
▁Helsinki 249
▁Penguin 249
▁Reserve 249
▁magnitude 249
▁proportion 249
▁spen 249
▁technical 249
▁Ticin 248
▁bread 248
▁compris 248
▁occupation 248
▁supplie 248
smith 247
▁Abbey 247
▁Darwin 247
▁Surre 247
▁dress 247
▁resource 247
▁retir 247
election 246
▁Yellow 246
▁glass 246
▁mixture 246
▁mobile 246
▁transfer 246
▁1893 245
▁Administration 245
▁Continent 245
▁Roosevelt 245
▁compilation 245
▁congress 245
▁fear 245
▁geometr 245
▁worst 245
The 244
▁Iranian 244
▁Movement 244
▁Report 244
▁Village 244
▁collaps 244
▁finger 244
▁invest 244
▁percentage 244
▁push 244
▁request 244
efence 243
▁Collins 243
▁NASA 243
▁Urban 243
▁colonial 243
▁concentrat 243
▁molecular 243
PAG 242
▁1898 242
▁Chancellor 242
▁Donke 242
▁Gordi 242
▁Ottoman 242
▁rebuil 242
▁spectr 242
▁747 241
▁Adelaide 241
▁Ethiopia 241
▁Franco 241
▁Richmond 241
▁Thames 241
▁Uruguay 241
▁attribut 241
▁deposit 241
▁identical 241
Cube 240
▁Campbell 240
▁Dragon 240
▁Jamaica 240
▁Salzburg 240
▁abolish 240
▁dwarf 240
▁recommend 240
▁rice 240
egislative 239
lpine 239
а 239
▁Bahrain 239
▁Belize 239
▁Eagle 239
▁Susan 239
▁VII 239
▁drift 239
▁incident 239
▁infect 239
▁rifle 239
▁steam 239
▁unlike 239
▁vertical 239
▁Prussia 238
▁Somers 238
▁ancestor 238
▁grandson 238
▁snake 238
▁Beatles 237
▁Luxembourg 237
▁ceremoni 237
▁committee 237
▁eagle 237
▁enemy 237
▁neighbor 237
2,000 236
▁Abraham 236
▁Evans 236
▁Stewart 236
▁accompani 236
▁calculat 236
▁characteriz 236
▁error 236
▁quot 236
ophil 235
▁Algeria 235
▁MTV 235
▁Newcastle 235
▁liberal 235
▁remix 235
▁sharp 235
▁survey 235
▁tale 235
▁victori 235
▁cartoon 234
▁output 234
▁specializ 234
▁vessel 234
▁worn 234
▁Curti 233
▁Sugar 233
▁orange 233
▁Secret 232
▁Worcester 232
▁argument 232
▁huge 232
▁importance 232
▁marry 232
▁worship 232
:00 231
lived 231
ø 231
▁Cycl 231
▁Scandinavia 231
▁chrom 231
▁climb 231
▁fleet 231
▁fluid 231
▁knowledge 231
▁replacement 231
▁Electric 230
▁Julie 230
▁Uttar 230
▁altitude 230
▁enjoy 230
▁entertainment 230
▁minimum 230
▁nominee 230
▁victim 230
▁Yugoslavia 229
▁absorb 229
▁margin 229
▁rugby 229
▁shift 229
▁verb 229
▁Animat 228
▁personality 228
▁responsibilit 228
* 227
▁frequenc 227
▁hydroxide 227
▁quark 227
▁sulfur 227
▁updat 227
Pyrénées 226
egislature 226
owski 226
related 226
▁Alliance 226
▁Lebanon 226
▁Local 226
▁automatic 226
▁goaltender 226
▁inherit 226
▁surpass 226
ogether 225
▁Getty 225
▁Tasmania 225
▁affair 225
▁archipelago 225
▁conservative 225
▁flour 225
▁graphic 225
= 224
ı 224
▁Cretaceous 224
▁Daily 224
▁Panama 224
▁banned 224
▁differ 224
▁expedition 224
▁teeth 224
▁Flyer 223
▁Lahore 223
▁Sacramento 223
▁Saskatchewan 223
▁cabinet 223
▁depth 223
▁plural 223
▁sweet 223
▁zinc 223
iterature 222
ovich 222
▁Brussels 222
▁Leafs 222
▁UTC 222
▁Volks 222
▁aspect 222
▁platinum 222
▁rhythm 222
▁struggl 222
avia 221
cliff 221
▁Gustav 221
▁McLaren 221
▁Salvador 221
▁fertil 221
▁implement 221
× 220
▁Bundes 220
▁Ernest 220
▁Khyber 220
▁Ministry 220
▁Thompson 220
▁annex 220
▁cream 220
▁decrease 220
▁undergraduate 220
▁Crash 219
▁Engineer 219
▁Gothic 219
▁alloy 219
▁archaeolog 219
▁flute 219
▁knee 219
▁pianist 219
▁remnant 219
▁Jerry 218
▁Santiag 218
▁biological 218
▁kilometres 218
▁penalt 218
▁proclaim 218
SC 217
и 217
▁Argentine 217
▁Chevrolet 217
▁Karnataka 217
▁Project 217
▁assault 217
▁dissipat 217
▁felt 217
▁quad 217
▁rib 217
▁surrender 217
▁volcanic 217
50,000 216
called 216
spread 216
▁Attorney 216
▁Lead 216
▁assumed 216
▁cluster 216
▁context 216
▁etc 216
▁hyper 216
▁ratio 216
▁recipient 216
▁typhoon 216
augural 215
either 215
ollegiate 215
▁VIII 215
▁abuse 215
▁achievement 215
▁encourag 215
▁intensity 215
▁jurisdiction 215
▁reef 215
power 214
released 214
▁Friends 214
▁Harold 214
▁Judaism 214
▁Magazine 214
▁Shadow 214
▁Survivor 214
▁automobile 214
▁leap 214
▁talent 214
0° 213
▁Leoni 213
▁Maurice 213
▁accelerat 213
▁admitt 213
▁blind 213
▁plot 213
▁poison 213
à 212
▁Language 212
▁Tuscan 212
▁biology 212
▁devot 212
▁funeral 212
▁hormone 212
▁probability 212
▁promis 212
▁secretary 212
Saxon 211
lead 211
▁Basin 211
▁Program 211
▁Rachel 211
▁Universe 211
▁chapter 211
▁plastic 211
▁serial 211
▁slope 211
▁sodium 211
Pakhtunkhwa 210
▁Chelsea 210
▁Edmund 210
▁Finn 210
▁Ghana 210
▁Speedway 210
▁deputy 210
▁resort 210
nfluence 209
▁Amazon 209
▁Circuit 209
▁Ferdinand 209
▁Where 209
▁Whitney 209
▁derivative 209
▁destructi 209
▁indigenous 209
▁predator 209
▁varie 209
Côte 208
▁debate 208
▁habitat 208
▁intestine 208
▁knock 208
▁skill 208
▁underground 208
direct 207
▁Bristol 207
▁Cornwall 207
▁Gaelic 207
▁Harbor 207
▁Oslo 207
▁defensive 207
▁isotope 207
▁journal 207
▁kilometer 207
▁marine 207
▁monument 207
▁resembl 207
▁Leicester 206
▁cinema 206
▁prayer 206
▁specimen 206
▁Dioces 205
▁Hercules 205
▁Nichola 205
▁Return 205
▁cheese 205
▁controversial 205
▁impress 205
▁vegetable 205
▁Guadal 204
▁Pearl 204
▁chicken 204
▁diverse 204
▁empire 204
▁Jonathan 203
▁Micro 203
▁Patriots 203
▁Wagner 203
▁charit 203
▁nervous 203
▁Andrea 202
▁Marsh 202
▁advantage 202
▁exclud 202
▁geo 202
▁subsidiar 202
drove 201
expensive 201
openha 201
▁Article 201
▁CEO 201
▁Confederate 201
▁Princip 201
▁Production 201
▁entrance 201
▁infra 201
▁symmetr 201
ometr 200
▁Caesar 200
▁Declaration 200
▁Explorer 200
▁Number 200
▁Renaissance 200
▁Vince 200
▁cardinal 200
▁integrat 200
▁magic 200
▁unsuccessful 200
▁widow 200
▁Milwaukee 199
▁Shawn 199
▁cease 199
▁illegal 199
▁opposition 199
▁pneumonia 199
▁saint 199
▁sauce 199
▁subfamil 199
▁Gujarat 198
▁Mozart 198
▁Pepper 198
▁jersey 198
▁matrix 198
▁mechanism 198
▁midfielder 198
▁oxidati 198
▁Barbados 197
▁Edition 197
▁Female 197
▁Mitchell 197
▁Nickelodeon 197
▁encompass 197
▁humid 197
▁infinite 197
▁relocat 197
front 196
č 196
▁Electro 196
▁Tournament 196
▁memorial 196
▁skull 196
▁turtle 196
⁄ 195
▁Archbishop 195
▁Lauren 195
▁Scots 195
▁background 195
▁decide 195
▁discontinu 195
▁faith 195
▁vitamin 195
▁withdraw 195
▁choose 194
▁elbow 194
▁sediment 194
▁spoke 194
▁stem 194
▁symphon 194
▁Abdul 193
▁Animal 193
▁Thunder 193
▁Concord 192
▁Doroth 192
▁Duchess 192
▁Morocc 192
▁Tyler 192
▁denote 192
▁enzyme 192
▁gather 192
▁modul 192
▁pepper 192
▁sculpture 192
▁sitting 192
▁vast 192
о 191
▁Regiment 190
▁rope 190
ο 189
piece 188
what 188
▁Aberdeen 188
▁crystal 188
▁nineteen 188
ς 184
ß 173
μ 173
ν 172
ر 166
ρ 165
е 163
ï 161
ل 159
| 158
р 156
н 154
ن 148
æ 147
م 138
ê 133
λ 133
ş 131
с 131
‘ 128
ι 122
к 122
ē 118
ń 118
ž 117
σ 116
τ 113
ي 112
Á 110
CP 108
ε 106
κ 103
Š 102
î 101
Å 99
т 98
د 97
~ 94
ă 94
π 90
ð 89
ğ 87
Æ 86
Ō 86
ə 86
л 86
γ 83
س 82
و 82
в 81
ί 80
ب 80
ό 78
ý 76
ت 74
δ 71
′ 71
· 69
ω 69
ा 67
ò 65
ά 65
€ 65
́ 64
İ 63
ř 62
β 62
ه 62
д 61
া 59
м 58
у 58
ù 57
φ 57
ʻ 56
ș 55
я 55
ŏ 54
Ä 53
Î 53
η 53
θ 53
υ 53
{ 52
Č 52
ś 52
י 52
} 51
Đ 50
ő 50
Ž 50
С 50
र 50
ר 49
ش 49
Ł 48
น 48
ร 47
า 47
− 47
ì 45
ě 45
ˈ 43
ة 43
ա 42
ו 41
ę 40
й 40
་ 40
Ó 39
έ 39
ή 39
Р 39
→ 39
Ø 38
Ś 38
ی 38
б 37
ṭ 37
ύ 36
Ç 35
п 35
ה 35
ع 34
् 33
ь 32
் 32
\ 31
Ā 31
ą 31
χ 31
К 31
ج 31
ح 31
大 31
` 29
ů 29
מ 29
ग 29
্ 29
ง 29
日 29
Ü 28
ʿ 28
г 28
ј 28
व 28
ḥ 27
Ú 26
ţ 26
Ι 26
ל 26
র 26
本 26
± 25
ė 25
ň 25
ŵ 25
ź 25
ч 25
א 25
ː 24
ц 24
ک 24
Þ 23
ã 23
û 23
ż 23
ț 23
В 23
Н 23
ы 23
ف 23
Ḥ 23
天 23
Ş 22
Ż 22
Λ 22
Σ 22
з 22
ز 22
ệ 22
ɪ 21
Б 21
П 21
ق 21
ी 21
ন 21
க 21
ก 21
ʼ 20
И 20
ր 20
त 20
ो 20
ব 20
ท 20
ม 20
♭ 20
대 20
¡ 19
ǎ 19
Η 19
ж 19
ك 19
ु 19
平 19
õ 18
ʾ 18
ב 18
न 18
ะ 18
མ 18
ུ 18
ン 18
ー 18
þ 17
Δ 17
ξ 17
М 17
Ф 17
ե 17
ն 17
ת 17
ི 17
・ 17
œ 16
ŭ 16
Μ 16
Т 16
ո 16
נ 16
ס 16
ש 16
ब 16
ल 16
ि 16
দ 16
ল 16
ค 16
อ 16
ṇ 16
ṯ 16
ồ 16
ộ 16
‐ 16
동 16
« 15
» 15
А 15
ի 15
ւ 15
خ 15
क 15
ক 15
ী 15
ว 15
ཐ 15
ཕ 15
“ 15
う 15
太 15
馬 15
È 14
ζ 14
х 14
յ 14
स 14
ர 14
พ 14
ย 14
ห 14
ิ 14
เ 14
ἀ 14
█ 14
§ 13
ŋ 13
ơ 13
Ο 13
ψ 13
Д 13
ф 13
і 13
կ 13
פ 13
த 13
ை 13
് 13
ุ 13
ṉ 13
ế 13
き 13
の 13
中 13
南 13
山 13
神 13
道 13
ʃ 12
Κ 12
Τ 12
Ω 12
ط 12
گ 12
य 12
ি 12
ด 12
ạ 12
ả 12
† 12
ん 12
カ 12
ル 12
皇 12
高 12
đ 11
ġ 11
ǐ 11
Ε 11
Π 11
Φ 11
Г 11
ш 11
Ա 11
ן 11
प 11
য 11
ല 11
ป 11
ั 11
ḷ 11
ủ 11
♯ 11
ⴰ 11
下 11
李 11
해 11
" 10
ɑ 10
ɡ 10
Α 10
մ 10
ָ 10
ם 10
آ 10
أ 10
ئ 10
پ 10
ہ 10
श 10
े 10
ট 10
ম 10
স 10
ে 10
ล 10
Ṭ 10
ẵ 10
ễ 10
∴ 10
≤ 10
え 10
ば 10
川 10
百 10
語 10
陛 10
駅 10
교 10
학 10
Í 9
ÿ 9
ĕ 9
ĭ 9
Χ 9
Գ 9
ז 9
ט 9
چ 9
ं 9
ज 9
द 9
म 9
ত 9
প 9
শ 9
ু 9
ਾ 9
ம 9
வ 9
ி 9
ต 9
ḍ 9
ḻ 9
ṣ 9
ấ 9
ἰ 9
∞ 9
〜 9
ィ 9
ト 9
ド 9
人 9
北 9
地 9
士 9
子 9
武 9
河 9
田 9
福 9
국 9
조 9
¥ 8
Â 8
Ñ 8
ħ 8
ŷ 8
ʊ 8
̱ 8
Γ 8
ώ 8
Е 8
Л 8
ּ 8
ד 8
ע 8
ث 8
ِ 8
গ 8
় 8
ਲ 8
ப 8
ு 8
ோ 8
ా 8
ರ 8
් 8
ส 8
ậ 8
ⵉ 8
か 8
た 8
と 8
ス 8
ラ 8
一 8
国 8
國 8
富 8
島 8
王 8
고 8
선 8
정 8
¢ 7
ư 7
ɒ 7
ɔ 7
ɛ 7
ъ 7
э 7
Հ 7
ղ 7
ַ 7
ֹ 7
ח 7
כ 7
ظ 7
জ 7
ய 7
ா 7
ന 7
ช 7
ี 7
ไ 7
่ 7
ວ 7
າ 7
ṅ 7
ṓ 7
ớ 7
ῆ 7
く 7
バ 7
八 7
學 7
幸 7
新 7
東 7
的 7
花 7
郎 7
風 7
서 7
장 7
한 7
화 7
^ 6
ų 6
ʌ 6
̊ 6
Ά 6
Θ 6
Ν 6
Υ 6
ю 6
ћ 6
ս 6
ք 6
ִ 6
ֵ 6
ק 6
ى 6
َ 6
ھ 6
ण 6
ध 6
ौ 6
ਸ 6
ਿ 6
ச 6
ன 6
ം 6
ക 6
ാ 6
ල 6
ṟ 6
Ἰ 6
ῶ 6
₤ 6
こ 6
イ 6
ジ 6
ッ 6
周 6
唐 6
堂 6
局 6
市 6
我 6
木 6
校 6
民 6
水 6
町 6
科 6
童 6
要 6
路 6
나 6
마 6
민 6
반 6
수 6
시 6
어 6
연 6
요 6
하 6
Ð 5
Ğ 5
ĩ 5
ǔ 5
ɐ 5
ʕ 5
Β 5
З 5
Ч 5
տ 5
ג 5
ص 5
غ 5
ह 5
ং 5
হ 5
ਜ 5
ਤ 5
ਰ 5
ல 5
ூ 5
ర 5
ಾ 5
್ 5
ര 5
ി 5
ข 5
ฐ 5
บ 5
ื 5
แ 5
์ 5
ສ 5
ṃ 5
ố 5
ἄ 5
Ἑ 5
ὰ 5
„ 5
↑ 5
せ 5
ち 5
ょ 5
ク 5
シ 5
セ 5
テ 5
デ 5
ナ 5
三 5
上 5
世 5
五 5
交 5
京 5
今 5
原 5
吉 5
囯 5
宮 5
快 5
方 5
星 5
林 5
永 5
江 5
波 5
第 5
縣 5
美 5
良 5
茶 5
重 5
野 5
金 5
黃 5
물 5
사 5
스 5
이 5
좌 5
주 5
ť 4
ƒ 4
ǧ 4
ǵ 4
Ș 4
ȟ 4
ɲ 4
ɳ 4
̂ 4
̓ 4
Ρ 4
О 4
У 4
Я 4
Ե 4
գ 4
թ 4
լ 4
ռ 4
ך 4
ء 4
إ 4
ڌ 4
ङ 4
ट 4
ड 4
ष 4
़ 4
ভ 4
ਗ 4
ਨ 4
ਹ 4
ੁ 4
੍ 4
ட 4
ந 4
ழ 4
ீ 4
ಯ 4
ಿ 4
ൊ 4
ක 4
ා 4
ถ 4
ธ 4
ນ 4
ར 4
ལ 4
ា 4
Ḩ 4
Ẓ 4
ẓ 4
ầ 4
ứ 4
Ἀ 4
Ὦ 4
ῦ 4
― 4
‰ 4
∆ 4
√ 4
い 4
ぎ 4
け 4
さ 4
だ 4
な 4
ま 4
ゃ 4
り 4
ヴ 4
全 4
六 4
内 4
別 4
十 4
参 4
友 4
報 4
場 4
字 4
常 4
延 4
德 4
撃 4
攻 4
政 4
氏 4
港 4
濟 4
特 4
祖 4
立 4
竹 4
筷 4
級 4
線 4
華 4
运 4
鐵 4
隊 4
雪 4
频 4
香 4
黄 4
건 4
관 4
궁 4
도 4
박 4
부 4
세 4
아 4
양 4
용 4
우 4
운 4
윤 4
제 4
지 4
짝 4
훗 4
 3
¿ 3
÷ 3
Ē 3
ľ 3
ũ 3
ɨ 3
ʔ 3
ˌ 3
˧ 3
̆ 3
͡ 3
Ј 3
љ 3
ѣ 3
ձ 3
ց 3
ְ 3
צ 3
ض 3
ّ 3
ٹ 3
ٽ 3
ڈ 3
ܡ 3
ܵ 3
अ 3
आ 3
च 3
ঙ 3
চ 3
ধ 3
ফ 3
ਕ 3
ਮ 3
਼ 3
ੇ 3
ੰ 3
ା 3
ి 3
ಮ 3
പ 3
ശ 3
ു 3
න 3
ම 3
ය 3
ව 3
ි 3
จ 3
โ 3
้ 3
ພ 3
ລ 3
ະ 3
ག 3
ས 3
ྡ 3
ნ 3
រ 3
្ 3
ḗ 3
Ḵ 3
ḵ 3
Ṣ 3
ổ 3
ụ 3
ữ 3
ỹ 3
ἐ 3
ῖ 3
‒ 3
∇ 3
∼ 3
≈ 3
⊂ 3
★ 3
♄ 3
♙ 3
♟ 3
ⴷ 3
ⵎ 3
ⵏ 3
ⵖ 3
ⵜ 3
あ 3
ざ 3
し 3
は 3
よ 3
ゴ 3
ザ 3
ツ 3
マ 3
リ 3
东 3
个 3
二 3
仁 3
代 3
內 3
动 3
右 3
后 3
坂 3
壽 3
孙 3
安 3
対 3
將 3
康 3
建 3
弁 3
強 3
形 3
慶 3
所 3
抹 3
支 3
月 3
梅 3
楽 3
治 3
泉 3
济 3
海 3
源 3
燕 3
物 3
生 3
申 3
畿 3
聖 3
自 3
草 3
藤 3
行 3
街 3
西 3
语 3
貝 3
賞 3
軒 3
輔 3
通 3
連 3
運 3
都 3
鈴 3
閣 3
院 3
陵 3
麗 3
강 3
니 3
당 3
등 3
리 3
미 3
북 3
상 3
설 3
소 3
신 3
원 3
육 3
인 3
쟁 3
헌 3
현 3
® 2
Ć 2
Ĉ 2
Ĕ 2
ģ 2
Ĥ 2
į 2
ĵ 2
ļ 2
ǂ 2
ǒ 2
ǫ 2
ȝ 2
ɣ 2
ɸ 2
ɹ 2
ɾ 2
ʋ 2
ʒ 2
̠ 2
̤ 2
Ό 2
Ϻ 2
Ђ 2
Є 2
І 2
Љ 2
Й 2
Х 2
Ш 2
Ь 2
ё 2
ђ 2
є 2
ѧ 2
ѹ 2
ә 2
դ 2
ծ 2
վ 2
օ 2
ֲ 2
ף 2
ؤ 2
ذ 2
ـ 2
ً 2
ْ 2
ڤ 2
ۍ 2
ܐ 2
ܘ 2
ܣ 2
थ 2
অ 2
উ 2
ও 2
ঞ 2
ণ 2
ਅ 2
ਯ 2
ੱ 2
ପ 2
ங 2
ஜ 2
ஶ 2
ே 2
ణ 2
త 2
వ 2
స 2
ಟ 2
ಡ 2
ನ 2
ಪ 2
ಶ 2
ಸ 2
ಹ 2
ೂ 2
ഗ 2
ട 2
ധ 2
മ 2
യ 2
സ 2
ඩ 2
ප 2
ර 2
ශ 2
ේ 2
ณ 2
ํ 2
ກ 2
ງ 2
ດ 2
ບ 2
ມ 2
ຫ 2
ອ 2
ັ 2
ີ 2
ື 2
ຸ 2
ເ 2
ແ 2
ໄ 2
້ 2
ཀ 2
ა 2
ላ 2
ር 2
በ 2
ጊ 2
ក 2
ជ 2
ព 2
ḋ 2
Ḫ 2
ḳ 2
ṗ 2
ề 2
ị 2
ờ 2
ἁ 2
Ἐ 2
Ἔ 2
Ἡ 2
ἴ 2
ὀ 2
ὁ 2
ὐ 2
ὴ 2
ᾶ 2
ῥ 2
ῷ 2
‡ 2
∂ 2
∈ 2
≆ 2
≠ 2
≡ 2
⋅ 2
⌀ 2
☣ 2
♈ 2
♏ 2
♓ 2
♥ 2
ⵍ 2
ⵔ 2
ⵢ 2
そ 2
っ 2
で 2
め 2
ゅ 2
る 2
ろ 2
エ 2
オ 2
ケ 2
ズ 2
チ 2
ニ 2
パ 2
フ 2
ブ 2
ペ 2
メ 2
ャ 2
ユ 2
ロ 2
ワ 2
不 2
丙 2
事 2
亚 2
令 2
伊 2
众 2
佛 2
你 2
侍 2
信 2
備 2
僑 2
儚 2
元 2
公 2
兴 2
切 2
列 2
利 2
到 2
制 2
功 2
動 2
勝 2
區 2
千 2
半 2
博 2
卿 2
古 2
台 2
同 2
哈 2
喜 2
器 2
四 2
園 2
型 2
基 2
壤 2
外 2
央 2
奈 2
学 2
宅 2
守 2
完 2
對 2
小 2
尹 2
峨 2
崎 2
嵯 2
州 2
帝 2
年 2
广 2
度 2
座 2
廊 2
影 2
後 2
心 2
忠 2
意 2
愛 2
慈 2
戦 2
拙 2
授 2
搜 2
敬 2
整 2
文 2
時 2
景 2
書 2
最 2
有 2
期 2
来 2
松 2
柱 2
树 2
森 2
椒 2
業 2
樂 2
汉 2
沖 2
法 2
泰 2
洲 2
活 2
浙 2
深 2
潤 2
火 2
点 2
照 2
独 2
玄 2
玉 2
琦 2
痘 2
白 2
直 2
省 2
矢 2
社 2
笑 2
筝 2
系 2
縱 2
级 2
習 2
考 2
腹 2
莞 2
蓮 2
蔵 2
蕭 2
裁 2
裕 2
補 2
角 2
諸 2
識 2
譜 2
議 2
貞 2
貴 2
貽 2
贵 2
走 2
起 2
轄 2
转 2
近 2
進 2
邑 2
部 2
酒 2
里 2
銀 2
钱 2
长 2
門 2
開 2
闘 2
阿 2
陆 2
陳 2
鞍 2
韓 2
頼 2
館 2
龍 2
거 2
경 2
공 2
구 2
꼼 2
녀 2
덕 2
럼 2
려 2
르 2
를 2
립 2
먹 2
무 2
백 2
법 2
보 2
봐 2
비 2
성 2
속 2
애 2
왕 2
외 2
울 2
일 2
잊 2
자 2
전 2
중 2
직 2
처 2
천 2
추 2
콜 2
토 2
평 2
할 2
혜 2
호 2
; 1
À 1
Ì 1
Ý 1
Ă 1
ĉ 1
Ġ 1
ĥ 1
Ħ 1
Ī 1
Ķ 1
ĺ 1
Ľ 1
Œ 1
Ř 1
Ţ 1
Ʋ 1
ǘ 1
ǝ 1
ǣ 1
Ǧ 1
ȳ 1
ɜ 1
ɬ 1
ʍ 1
ʑ 1
ʤ 1
ʹ 1
ˀ 1
ˁ 1
˥ 1
˩ 1
̀ 1
̄ 1
̋ 1
̥ 1
̩ 1
̪ 1
̮ 1
Ζ 1
Ξ 1
ϻ 1
Џ 1
Ж 1
Ц 1
Э 1
Ю 1
щ 1
ї 1
ѩ 1
ҡ 1
ү 1
ұ 1
Ӣ 1
ӣ 1
ө 1
Դ 1
Ծ 1
Կ 1
Մ 1
Յ 1
Ն 1
Տ 1
Ց 1
բ 1
զ 1
հ 1
պ 1
ֳ 1
ץ 1
ُ 1
ٿ 1
ڄ 1
ڊ 1
ڑ 1
ژ 1
ڦ 1
ڪ 1
ګ 1
ۓ 1
ܙ 1
ܚ 1
ܥ 1
ܦ 1
ܨ 1
ܩ 1
ܪ 1
ܫ 1
ܬ 1
ܸ 1
ܼ 1
इ 1
उ 1
ठ 1
फ 1
भ 1
আ 1
ই 1
খ 1
ঢ 1
ো 1
ৌ 1
ৰ 1
ਆ 1
ਝ 1
ਠ 1
ਣ 1
ਬ 1
ਵ 1
ੂ 1
ੈ 1
પ 1
ય 1
ર 1
િ 1
ૂ 1
ો 1
କ 1
ଙ 1
ଟ 1
ଦ 1
ର 1
ୀ 1
୍ 1
இ 1
ஈ 1
ண 1
ொ 1
ం 1
ఆ 1
జ 1
ధ 1
ప 1
బ 1
భ 1
య 1
ల 1
ూ 1
ో 1
్ 1
ಂ 1
ಕ 1
ಗ 1
ಜ 1
ಣ 1
ದ 1
ಲ 1
ಳ 1
ು 1
ೆ 1
ೊ 1
ജ 1
ത 1
ബ 1
ള 1
ൂ 1
െ 1
ോ 1
ං 1
ග 1
ට 1
ත 1
ද 1
ධ 1
ස 1
ී 1
ෙ 1
ො 1
ผ 1
ศ 1
ຊ 1
ຕ 1
ທ 1
ປ 1
ູ 1
ང 1
ད 1
ན 1
བ 1
ེ 1
ྟ 1
ྲ 1
ბ 1
ე 1
ი 1
ო 1
რ 1
უ 1
ძ 1
ჯ 1
ል 1
መ 1
ሙ 1
ማ 1
ስ 1
ሾ 1
ቂ 1
ቢ 1
ተ 1
ቱ 1
አ 1
ወ 1
ዮ 1
ደ 1
ግ 1
ᐊ 1
ᑦ 1
ᓄ 1
ᓇ 1
ᓯ 1
ᖅ 1
ᚠ 1
ᚢ 1
ᚦ 1
ᚨ 1
ᚱ 1
ᚲ 1
ច 1
ណ 1
ម 1
ុ 1
ះ 1
ᮏ 1
ᮝ 1
Ḍ 1
ḏ 1
ḕ 1
ḫ 1
ṛ 1
ẞ 1
ằ 1
ẹ 1
ẻ 1
ừ 1
ự 1
Ἁ 1
Ἄ 1
ἔ 1
ἡ 1
ἦ 1
ἱ 1
ἵ 1
ἷ 1
ὄ 1
ὕ 1
ὖ 1
Ὑ 1
Ὠ 1
ὶ 1
ὸ 1
ὺ 1
ᾱ 1
ῃ 1
ῄ 1
ῇ 1
Ῥ 1
‚ 1
‬ 1
⁊ 1
₡ 1
₣ 1
⇧ 1
∀ 1
∏ 1
∑ 1
∝ 1
≃ 1
≅ 1
◊ 1
☥ 1
♀ 1
♆ 1
♉ 1
♌ 1
♎ 1
♕ 1
♘ 1
♛ 1
♞ 1
♠ 1
♡ 1
♣ 1
♦ 1
⟨ 1
⟩ 1
ⴱ 1
ⴳ 1
ⴹ 1
ⴻ 1
ⴼ 1
ⵀ 1
ⵊ 1
ⵓ 1
ⵕ 1
ⵙ 1
ⵣ 1
⺮ 1
、 1
〔 1
〕 1
が 1
ぐ 1
ず 1
つ 1
ど 1
に 1
ぬ 1
ひ 1
ぶ 1
ぷ 1
へ 1
べ 1
ほ 1
み 1
む 1
も 1
ら 1
れ 1
わ 1
ウ 1
ガ 1
グ 1
コ 1
ゼ 1
タ 1
ヌ 1
ネ 1
ハ 1
プ 1
ミ 1
ヤ 1
ュ 1
ヨ 1
丸 1
丹 1
之 1
乐 1
书 1
互 1
仔 1
仙 1
仲 1
会 1
传 1
伦 1
伯 1
佐 1
佳 1
俊 1
俗 1
保 1
修 1
倶 1
偈 1
偕 1
傅 1
傳 1
允 1
光 1
免 1
兮 1
养 1
冠 1
冨 1
冲 1
准 1
副 1
創 1
劉 1
力 1
務 1
卍 1
卐 1
卑 1
卓 1
卜 1
厦 1
去 1
县 1
及 1
反 1
取 1
叟 1
口 1
句 1
叶 1
吳 1
呼 1
咀 1
和 1
員 1
唵 1
営 1
嘏 1
图 1
團 1
在 1
坝 1
坡 1
垂 1
城 1
域 1
夢 1
奖 1
女 1
奶 1
妸 1
姿 1
娥 1
存 1
孝 1
宇 1
宏 1
客 1
家 1
寶 1
寺 1
尊 1
少 1
尼 1
展 1
岛 1
岩 1
嶽 1
巢 1
工 1
左 1
帆 1
师 1
希 1
幕 1
幣 1
干 1
幼 1
庆 1
引 1
弥 1
張 1
弹 1
彈 1
彊 1
彌 1
彦 1
徳 1
志 1
忘 1
忱 1
念 1
惠 1
想 1
憶 1
應 1
成 1
战 1
戲 1
房 1
扇 1
打 1
抗 1
拉 1
拜 1
拨 1
拯 1
撥 1
撫 1
敏 1
於 1
族 1
旭 1
昇 1
昌 1
明 1
易 1
春 1
是 1
晉 1
晏 1
晙 1
曉 1
曜 1
曹 1
朝 1
朱 1
杉 1
村 1
条 1
果 1
枢 1
染 1
根 1
桜 1
梦 1
梵 1
楷 1
権 1
横 1
橋 1
機 1
檔 1
次 1
欽 1
歌 1
歐 1
歸 1
殿 1
比 1
求 1
汪 1
汽 1
沛 1
津 1
洪 1
流 1
浅 1
浜 1
浪 1
涿 1
減 1
渝 1
湖 1
溪 1
滸 1
炜 1
烈 1
無 1
熊 1
燉 1
燒 1
牡 1
猷 1
玥 1
现 1
玲 1
珠 1
現 1
球 1
理 1
琪 1
瑜 1
瑶 1
电 1
界 1
疹 1
痧 1
癸 1
盆 1
眼 1
碎 1
碟 1
磯 1
祠 1
禅 1
禧 1
禪 1
秀 1
私 1
秋 1
程 1
稔 1
筠 1
箏 1
管 1
箸 1
糖 1
紀 1
絡 1
統 1
継 1
維 1
總 1
纽 1
维 1
罗 1
羅 1
翁 1
翔 1
耳 1
耿 1
肥 1
能 1
膺 1
臺 1
興 1
船 1
艺 1
芒 1
芝 1
芹 1
英 1
范 1
茗 1
莉 1
萨 1
萬 1
萱 1
葆 1
葛 1
葱 1
蔡 1
薩 1
薮 1
虎 1
號 1
衛 1
裏 1
褒 1
解 1
言 1
記 1
許 1
話 1
護 1
讯 1
试 1
话 1
豐 1
象 1
財 1
貶 1
資 1
賈 1
资 1
赛 1
赤 1
跡 1
車 1
軍 1
軽 1
车 1
辛 1
農 1
迪 1
逆 1
速 1
達 1
那 1
邱 1
郡 1
鄉 1
鄭 1
配 1
量 1
鉄 1
錄 1
錢 1
鏡 1
铁 1
锋 1
長 1
阁 1
陀 1
陶 1
陸 1
陽 1
隆 1
隈 1
隱 1
隼 1
雄 1
集 1
雙 1
雜 1
霸 1
青 1
靜 1
韦 1
音 1
順 1
风 1
餅 1
餘 1
馆 1
馨 1
鬼 1
鮮 1
鱲 1
鸟 1
麟 1
麹 1
麺 1
黎 1
龙 1
ꙁ 1
ꙑ 1
ꦗ 1
ꦮ 1
가 1
개 1
게 1
군 1
귀 1
균 1
기 1
남 1
너 1
년 1
농 1
눈 1
단 1
독 1
돈 1
듀 1
떡 1
떼 1
라 1
래 1
로 1
메 1
명 1
문 1
밀 1
밥 1
번 1
벌 1
베 1
별 1
병 1
샤 1
석 1
순 1
숭 1
슈 1
슬 1
승 1
심 1
안 1
앙 1
여 1
역 1
오 1
옷 1
욱 1
월 1
윌 1
유 1
융 1
의 1
임 1
적 1
족 1
종 1
증 1
짜 1
창 1
총 1
최 1
취 1
카 1
컴 1
타 1
텐 1
특 1
팔 1
퍼 1
풍 1
프 1
플 1
픔 1
항 1
허 1
헛 1
혁 1
활 1
후 1
훈 1
희 1
𓋹 1
