<unk>	0
<s>	0
</s>	0
▁the	-3.10209
▁,	-3.31464
s	-3.356
▁.	-3.38
▁of	-3.77333
▁in	-3.81806
▁	-3.91202
▁and	-4.11105
▁a	-4.23505
ed	-4.26895
▁is	-4.28813
▁was	-4.621
▁to	-4.63265
▁The	-4.66753
▁''	-4.84139
▁``	-4.84222
(	-5.07228
▁)	-5.07373
ing	-5.08851
-	-5.14485
y	-5.20902
▁on	-5.2212
e	-5.28898
d	-5.31208
▁for	-5.34544
▁by	-5.48002
▁'	-5.48018
▁as	-5.49021
▁with	-5.60976
n	-5.73246
er	-5.75854
▁that	-5.78332
▁from	-5.83819
ly	-5.84455
t	-5.87487
a	-5.90293
▁at	-5.9032
▁It	-5.94339
▁In	-5.95615
▁be	-5.96717
▁He	-5.97048
▁are	-5.98375
▁A	-5.99656
▁an	-6.00706
▁first	-6.07425
.	-6.09027
o	-6.1045
▁his	-6.10824
al	-6.1264
th	-6.20267
▁he	-6.21286
es	-6.214
▁which	-6.23908
▁or	-6.24605
▁it	-6.30114
in	-6.34527
▁also	-6.40941
▁city	-6.40965
r	-6.41047
l	-6.42866
i	-6.43876
▁one	-6.50576
▁United	-6.59123
▁were	-6.60986
le	-6.62255
▁has	-6.62513
on	-6.66441
m	-6.70382
▁S	-6.70649
▁born	-6.73385
▁not	-6.73713
▁18	-6.74589
c	-6.75192
▁;	-6.75962
k	-6.77903
▁States	-6.7955
or	-6.80864
▁:	-6.818
▁New	-6.83954
▁two	-6.86742
en	-6.88286
▁known	-6.8947
▁C	-6.90062
▁had	-6.9019
▁released	-6.90455
▁who	-6.91232
re	-6.92445
▁her	-6.92554
▁name	-6.93264
S	-6.94752
ic	-6.94963
▁most	-6.95055
st	-6.97144
ion	-6.98043
▁after	-7.0093
▁but	-7.01396
an	-7.02054
▁B	-7.02369
h	-7.03419
▁I	-7.03426
▁American	-7.0411
us	-7.0438
▁second	-7.0486
▁She	-7.05017
▁1	-7.06262
▁state	-7.06433
▁have	-7.0672
▁its	-7.07138
ation	-7.09224
u	-7.11421
▁part	-7.11703
ar	-7.12111
▁On	-7.12927
▁U	-7.13549
▁won	-7.13902
g	-7.13904
ro	-7.14213
▁other	-7.14693
came	-7.14806
▁their	-7.14942
el	-7.1669
▁used	-7.17065
▁album	-7.181
▁de	-7.19886
f	-7.19888
ra	-7.19948
p	-7.20164
▁largest	-7.21891
▁called	-7.22653
▁World	-7.23066
▁E	-7.23165
▁re	-7.23304
z	-7.24027
▁2	-7.24273
▁F	-7.24349
it	-7.27299
▁into	-7.27798
et	-7.31135
▁been	-7.31196
ers	-7.31626
▁team	-7.32021
▁only	-7.32704
▁This	-7.32924
ne	-7.32967
▁T	-7.33155
▁G	-7.33199
ch	-7.33585
il	-7.33747
▁University	-7.33759
▁made	-7.34233
▁County	-7.35248
ia	-7.35775
▁3	-7.35798
ies	-7.36203
▁she	-7.36416
▁D	-7.36616
se	-7.36679
b	-7.368
▁number	-7.37816
ir	-7.37828
▁all	-7.37878
ent	-7.38448
▁when	-7.38574
▁this	-7.39944
▁can	-7.39995
ta	-7.40135
▁O	-7.41727
▁three	-7.42117
▁P	-7.42196
A	-7.43699
▁time	-7.43804
is	-7.45452
ton	-7.45525
▁K	-7.45544
na	-7.45916
▁where	-7.46251
▁season	-7.46502
▁M	-7.47216
▁game	-7.47929
ce	-7.48353
man	-7.486
▁17	-7.48624
w	-7.48692
▁over	-7.49063
▁4	-7.49201
ver	-7.50547
la	-7.51274
ry	-7.5158
▁September	-7.5196
▁between	-7.52049
▁played	-7.53558
▁series	-7.53719
▁people	-7.53874
ur	-7.54052
during	-7.54754
▁South	-7.55019
▁f	-7.55177
to	-7.55418
▁N	-7.55599
▁about	-7.55972
▁area	-7.56199
te	-7.56313
▁2010	-7.56457
li	-7.56783
▁p	-7.5692
▁May	-7.56991
▁years	-7.57226
C	-7.57644
at	-7.57858
▁than	-7.58268
ma	-7.59421
▁June	-7.59839
▁August	-7.59998
▁world	-7.60239
▁July	-7.60562
▁City	-7.60718
de	-7.60898
▁more	-7.6098
ian	-7.61635
▁R	-7.62109
▁October	-7.62568
▁North	-7.63523
▁c	-7.63834
▁November	-7.64107
ine	-7.65345
ri	-7.65391
▁town	-7.65502
um	-7.65791
▁capital	-7.6589
ve	-7.66255
▁L	-7.66563
▁Re	-7.66577
▁March	-7.6669
ist	-7.67074
▁W	-7.67127
▁10	-7.67212
ter	-7.67419
▁5	-7.67871
▁co	-7.69034
▁York	-7.6916
▁locat	-7.69716
until	-7.70048
lo	-7.70056
▁January	-7.70653
gan	-7.70842
▁third	-7.71531
▁La	-7.71554
▁many	-7.72059
▁National	-7.72121
▁later	-7.72643
▁county	-7.73259
▁16	-7.73516
▁War	-7.74086
–	-7.74729
▁year	-7.74884
est	-7.75006
▁2011	-7.75401
id	-7.75504
▁December	-7.75863
x	-7.76005
▁t	-7.76197
▁film	-7.76271
ck	-7.76301
,	-7.76426
▁St	-7.76601
▁April	-7.76658
▁new	-7.76696
▁15	-7.7678
P	-7.77138
vi	-7.77247
ive	-7.77564
▁four	-7.78889
ke	-7.79001
▁band	-7.79697
▁6	-7.79791
son	-7.80086
▁b	-7.80668
▁some	-7.80723
D	-7.80854
▁–	-7.8113
▁Al	-7.81618
▁7	-7.83248
ul	-7.83286
▁February	-7.83378
ol	-7.83385
▁such	-7.83593
ity	-7.84198
▁De	-7.85385
▁up	-7.85417
▁national	-7.85798
ment	-7.86072
▁system	-7.86117
M	-7.86173
▁Le	-7.86719
▁H	-7.86801
▁2008	-7.87057
▁River	-7.8707
▁out	-7.87101
land	-7.87497
▁show	-7.87794
▁play	-7.87893
▁2012	-7.88203
▁20	-7.88803
▁John	-7.88866
▁north	-7.89111
▁British	-7.89245
▁under	-7.89418
me	-7.90471
ci	-7.90621
ga	-7.90777
▁They	-7.90894
ok	-7.90896
▁2007	-7.90946
▁died	-7.91184
▁since	-7.91371
▁2013	-7.91452
▁through	-7.91522
▁found	-7.91561
▁2009	-7.92154
▁League	-7.92319
▁England	-7.92338
▁would	-7.92624
ie	-7.92648
▁football	-7.92757
▁both	-7.92908
▁12	-7.93018
▁end	-7.93256
▁work	-7.93508
▁best	-7.93645
co	-7.93669
▁English	-7.93894
▁8	-7.93899
▁south	-7.94305
▁%	-7.94398
▁single	-7.94429
di	-7.94607
▁well	-7.94903
▁population	-7.9528
▁London	-7.95611
▁place	-7.95659
va	-7.95784
am	-7.95831
B	-7.95854
▁2014	-7.96706
▁Ma	-7.97019
▁there	-7.97101
▁country	-7.9737
▁song	-7.97726
▁Cup	-7.9832
ary	-7.98414
▁France	-7.98494
ti	-7.98871
▁main	-7.99034
▁including	-7.9924
▁million	-7.99391
▁As	-7.99452
/	-7.99464
▁home	-7.99545
ig	-7.99646
▁they	-7.99761
▁14	-8.00023
▁language	-8.00115
▁no	-8.00144
▁region	-8.0025
ous	-8.0056
▁serv	-8.00651
▁Co	-8.01244
able	-8.01375
▁group	-8.01689
▁use	-8.01795
▁being	-8.02328
▁11	-8.02332
tic	-8.02469
▁form	-8.02714
ge	-8.02779
▁before	-8.02781
age	-8.02856
L	-8.03187
▁President	-8.03413
▁At	-8.03461
▁same	-8.03707
▁J	-8.03708
▁family	-8.03856
▁record	-8.04011
ba	-8.04746
N	-8.04831
▁member	-8.04898
▁V	-8.05331
ut	-8.05473
▁State	-8.05705
▁2006	-8.05765
▁tropical	-8.06034
▁There	-8.06038
ll	-8.06504
▁him	-8.06546
▁movie	-8.06585
da	-8.07032
▁West	-8.07142
mo	-8.0734
▁music	-8.075
E	-8.0754
as	-8.07668
▁television	-8.08137
▁so	-8.08274
▁13	-8.08599
no	-8.08671
▁9	-8.089
▁former	-8.09798
nd	-8.09909
▁Mar	-8.10139
ha	-8.10556
▁German	-8.10842
ph	-8.10934
ca	-8.11024
▁Pa	-8.11139
▁last	-8.11169
▁After	-8.11242
▁whil	-8.11597
▁Championship	-8.12057
▁then	-8.12149
▁Ra	-8.12447
ant	-8.1255
▁major	-8.13295
▁son	-8.13339
▁Australia	-8.13644
F	-8.13752
▁district	-8.13921
go	-8.13962
▁America	-8.14039
I	-8.14265
out	-8.15122
é	-8.15136
▁title	-8.15405
T	-8.16351
round	-8.16419
▁against	-8.16635
bo	-8.17014
ism	-8.17262
▁con	-8.17529
▁Sa	-8.1757
▁match	-8.1789
ot	-8.18059
▁Bo	-8.18112
▁2015	-8.18158
▁An	-8.18222
▁Ba	-8.18451
▁win	-8.18678
▁final	-8.18831
pe	-8.18934
▁Be	-8.19175
au	-8.19342
▁Me	-8.19363
▁Party	-8.1972
j	-8.19828
▁un	-8.19905
▁French	-8.19967
O	-8.20447
▁California	-8.20521
op	-8.20566
▁water	-8.20582
'	-8.207
▁Germany	-8.21122
▁province	-8.21136
▁term	-8.21798
em	-8.21822
up	-8.21913
mp	-8.21928
ni	-8.21931
▁India	-8.21931
▁age	-8.22141
un	-8.22336
▁early	-8.22459
▁King	-8.23294
▁Ta	-8.23402
▁2005	-8.23506
ate	-8.23518
▁five	-8.23864
▁day	-8.24045
▁do	-8.24218
ka	-8.24218
im	-8.24232
mb	-8.24337
▁His	-8.244
mi	-8.24497
▁19	-8.24634
ill	-8.24831
ty	-8.24958
ak	-8.2526
▁government	-8.25392
ang	-8.2542
▁often	-8.25475
1	-8.25593
▁Ro	-8.25617
ance	-8.2604
▁started	-8.2639
▁di	-8.26683
▁al	-8.26685
▁death	-8.26949
▁include	-8.27068
▁Li	-8.27259
▁Ha	-8.2765
lu	-8.27938
▁Ca	-8.28112
be	-8.28328
v	-8.28486
om	-8.28498
▁west	-8.2851
▁held	-8.28654
▁based	-8.28883
ley	-8.28944
▁2000	-8.2907
▁San	-8.29082
▁because	-8.29179
▁now	-8.29236
▁near	-8.29417
▁species	-8.29554
▁east	-8.2963
▁set	-8.30058
▁II	-8.30081
▁role	-8.30368
H	-8.30854
▁Award	-8.30899
▁Mo	-8.30978
▁30	-8.31027
ac	-8.31475
▁g	-8.3194
▁several	-8.31989
▁Republic	-8.32208
▁century	-8.32336
▁storm	-8.32557
▁Canada	-8.32616
R	-8.32837
▁any	-8.32906
ard	-8.32987
pp	-8.3303
▁Man	-8.33193
G	-8.33353
▁East	-8.33707
▁2004	-8.33772
▁25	-8.33892
der	-8.33951
$	-8.34484
▁may	-8.34602
▁Lo	-8.34817
▁games	-8.35049
▁Na	-8.35089
▁along	-8.3537
per	-8.35602
▁Bar	-8.35661
▁publish	-8.35711
▁club	-8.3574
▁large	-8.35982
▁seat	-8.3601
▁Gu	-8.36855
▁small	-8.37401
▁formed	-8.37412
▁appear	-8.37465
▁Di	-8.37566
▁To	-8.3787
▁One	-8.3794
▁No	-8.38034
▁university	-8.38362
ho	-8.38435
▁following	-8.38499
▁player	-8.3852
▁head	-8.38656
▁father	-8.3894
gen	-8.38958
ide	-8.38971
2	-8.39012
▁land	-8.3909
▁Vi	-8.39216
▁founded	-8.39442
▁All	-8.39889
▁written	-8.40012
▁fourth	-8.4032
▁Ho	-8.40752
hi	-8.40777
▁will	-8.40795
▁21	-8.4086
▁Kingdom	-8.40876
ish	-8.40992
ow	-8.41073
▁Car	-8.4124
▁version	-8.41272
ical	-8.41296
▁popular	-8.41328
▁Her	-8.41593
3	-8.41747
▁school	-8.4194
▁For	-8.42243
▁general	-8.42248
tion	-8.4229
ab	-8.42345
▁announc	-8.42366
▁each	-8.428
▁Europe	-8.43355
po	-8.43377
&	-8.43408
▁24	-8.4353
▁Japan	-8.43563
▁Do	-8.43666
▁Super	-8.43747
▁House	-8.44149
ham	-8.44182
▁race	-8.4435
▁sp	-8.44569
▁Great	-8.44614
ru	-8.44631
though	-8.44768
▁Con	-8.44911
ster	-8.44931
▁e	-8.45044
▁like	-8.4505
ah	-8.45052
▁marri	-8.45073
▁Park	-8.45184
▁different	-8.45304
▁Sea	-8.45598
▁US	-8.45678
▁pro	-8.45715
ium	-8.46204
▁top	-8.46314
▁reach	-8.46402
▁debut	-8.46537
▁2001	-8.46938
▁public	-8.46979
▁six	-8.46998
▁23	-8.47056
00	-8.47368
ven	-8.4748
ber	-8.47817
▁usually	-8.47855
▁European	-8.47905
▁created	-8.48082
ger	-8.48102
▁per	-8.48147
▁professional	-8.48155
▁pre	-8.48166
▁22	-8.48303
▁X	-8.48718
▁back	-8.48756
▁very	-8.4876
▁long	-8.48927
▁El	-8.49128
com	-8.49189
rd	-8.49327
▁Se	-8.49469
▁Ne	-8.4998
ial	-8.50299
ner	-8.50832
▁video	-8.50923
▁common	-8.50973
▁Pi	-8.5126
▁river	-8.51309
▁Church	-8.51403
ag	-8.51432
▁car	-8.51536
▁Ka	-8.51592
▁Po	-8.51679
▁island	-8.51693
▁School	-8.52579
▁Grand	-8.5258
▁short	-8.52789
▁Best	-8.5297
▁history	-8.5349
▁Howe	-8.53493
▁high	-8.53578
▁Ar	-8.53618
way	-8.53646
▁built	-8.53664
▁elected	-8.53717
tro	-8.54081
mon	-8.54089
ence	-8.54715
one	-8.54837
ated	-8.54849
▁2003	-8.54972
▁Games	-8.55046
den	-8.55232
▁Ja	-8.5538
▁receiv	-8.55385
ite	-8.55403
ever	-8.5549
▁Z	-8.56082
▁line	-8.56695
W	-8.56706
▁Australian	-8.56804
▁International	-8.56845
▁moved	-8.56884
ure	-8.56965
▁children	-8.57033
▁Union	-8.57121
▁Minister	-8.57319
▁official	-8.57465
▁Ga	-8.57504
▁When	-8.577
▁career	-8.57964
▁defeat	-8.57978
tra	-8.58164
▁Dur	-8.58366
▁countries	-8.58493
ina	-8.58718
▁26	-8.58718
▁2002	-8.58739
▁n	-8.58812
▁College	-8.58826
▁them	-8.58998
▁So	-8.59038
▁ex	-8.59315
▁chart	-8.59361
▁important	-8.59532
▁rock	-8.59578
▁highest	-8.59617
▁northern	-8.59721
▁join	-8.59774
▁did	-8.59885
ten	-8.59976
les	-8.60229
▁Roman	-8.60397
che	-8.60462
▁left	-8.60509
do	-8.60716
ki	-8.60936
▁Chicago	-8.61149
gg	-8.61256
▁air	-8.61416
▁list	-8.61629
▁war	-8.61837
▁27	-8.61882
▁Island	-8.6191
our	-8.62585
▁Royal	-8.62602
▁100	-8.63045
▁China	-8.63345
▁border	-8.63379
▁if	-8.63426
▁la	-8.63635
▁return	-8.63645
▁next	-8.63878
▁Ireland	-8.64073
od	-8.64129
▁book	-8.64339
▁become	-8.64355
▁District	-8.64386
▁Olympic	-8.64646
ward	-8.64808
▁daughter	-8.64818
▁consider	-8.64857
5	-8.64955
sen	-8.64961
ler	-8.64986
,000	-8.6501
▁total	-8.65154
mar	-8.65159
▁period	-8.6533
▁WWE	-8.6537
ford	-8.65509
▁28	-8.65513
▁dis	-8.65659
▁run	-8.65887
▁Pakistan	-8.66084
tt	-8.66104
▁law	-8.66242
▁Florida	-8.66443
▁Su	-8.66486
▁produced	-8.66696
▁late	-8.66936
wa	-8.67319
▁members	-8.67473
▁southern	-8.67571
pa	-8.67672
ville	-8.67694
V	-8.67731
▁municipality	-8.67985
▁station	-8.68017
▁Summer	-8.68019
ally	-8.68044
ship	-8.68125
time	-8.68232
ect	-8.68394
▁perform	-8.68572
▁side	-8.68855
▁event	-8.69005
▁UK	-8.69556
▁live	-8.69561
▁29	-8.69601
▁host	-8.69704
▁again	-8.6972
tor	-8.69759
▁said	-8.6986
▁month	-8.69865
▁Lu	-8.69878
▁Africa	-8.70235
ach	-8.70313
hu	-8.70421
▁life	-8.70611
▁Air	-8.70685
lan	-8.70734
shire	-8.709
▁sub	-8.70907
given	-8.71184
ud	-8.71207
▁attack	-8.71235
bb	-8.71528
▁mother	-8.71528
▁medal	-8.71912
▁Sp	-8.72074
▁hurricane	-8.7216
▁man	-8.72259
▁make	-8.72475
ell	-8.72486
line	-8.72576
▁order	-8.72586
▁Canadian	-8.7267
▁election	-8.72684
▁en	-8.72698
▁result	-8.72841
▁Central	-8.72968
▁1999	-8.73019
▁lost	-8.73169
za	-8.73519
▁James	-8.73653
▁Pro	-8.73763
ja	-8.73871
con	-8.73895
▁present	-8.74051
▁1990	-8.74092
▁championship	-8.74481
▁ma	-8.74588
▁original	-8.74722
gu	-8.74809
ct	-8.7489
▁Los	-8.75134
▁Da	-8.75322
4	-8.75542
lin	-8.75578
▁established	-8.75786
▁league	-8.75825
ip	-8.75889
▁support	-8.75957
▁Lake	-8.75981
▁just	-8.76002
▁Hall	-8.76098
▁person	-8.76355
▁Cor	-8.76436
▁v	-8.76601
▁Sweden	-8.76662
6	-8.76778
▁finished	-8.76791
▁ten	-8.76884
▁Bu	-8.76942
▁Ko	-8.77022
the	-8.77186
▁tri	-8.77429
▁1998	-8.77649
▁singer	-8.77822
▁making	-8.77876
▁wife	-8.7791
▁Cha	-8.77968
▁Te	-8.78011
U	-8.78569
ling	-8.78638
▁Fa	-8.78655
▁sold	-8.78897
▁came	-8.79122
ized	-8.79233
▁seven	-8.79381
▁how	-8.79389
▁Wa	-8.79399
▁company	-8.79492
▁inter	-8.7968
ub	-8.79759
▁central	-8.7987
har	-8.79882
▁point	-8.79906
side	-8.79966
▁Go	-8.79982
▁cities	-8.79993
ong	-8.80058
ron	-8.80122
▁Jo	-8.80186
▁power	-8.80186
▁fifth	-8.80361
▁non	-8.80388
▁developed	-8.80421
gi	-8.80714
▁Gra	-8.81042
▁another	-8.81169
▁studio	-8.81189
▁William	-8.81277
▁famous	-8.8133
ions	-8.81567
▁still	-8.81613
▁direct	-8.81627
▁times	-8.81682
▁international	-8.81842
▁George	-8.82013
▁current	-8.82016
▁sea	-8.82103
▁Per	-8.82425
▁Ni	-8.82429
tu	-8.82484
▁m	-8.82643
went	-8.8271
▁1980	-8.82789
min	-8.8291
fa	-8.8303
ex	-8.83079
▁Bay	-8.83109
▁actor	-8.83148
▁local	-8.83163
▁Texas	-8.83251
▁Indian	-8.83478
▁Hu	-8.8348
▁rule	-8.83535
▁1996	-8.83732
ade	-8.83851
▁pa	-8.83898
▁You	-8.8396
io	-8.83985
▁represent	-8.84289
▁Red	-8.84369
ice	-8.84582
bu	-8.84664
▁w	-8.84832
▁example	-8.8492
▁art	-8.85022
▁Academy	-8.85161
▁Mexico	-8.85209
ft	-8.85231
▁Washington	-8.85499
▁body	-8.85512
▁centre	-8.8555
▁men	-8.85563
▁sometimes	-8.85645
▁NHL	-8.85661
K	-8.85702
▁own	-8.85792
▁led	-8.8586
▁plant	-8.85907
ov	-8.85926
▁episode	-8.85983
▁oldest	-8.86072
▁Some	-8.86104
▁release	-8.86177
▁ca	-8.86285
val	-8.86295
▁stage	-8.86384
don	-8.86385
▁center	-8.86479
▁Paul	-8.86551
▁these	-8.8661
•	-8.86666
▁word	-8.86938
cy	-8.8704
▁1995	-8.87217
▁lead	-8.87278
▁contain	-8.87897
▁Prime	-8.87964
▁full	-8.87978
▁Italy	-8.87986
ath	-8.88029
he	-8.88286
nt	-8.88303
▁round	-8.88328
▁women	-8.88593
oc	-8.88702
▁Ri	-8.88786
▁house	-8.88834
▁ho	-8.8903
▁Angeles	-8.89153
by	-8.89201
field	-8.89283
▁Japanese	-8.89439
▁consist	-8.89455
qui	-8.89461
ap	-8.89486
▁cover	-8.89606
▁currently	-8.89609
▁leader	-8.8979
wi	-8.899
▁census	-8.9
av	-8.90057
▁brother	-8.90101
▁du	-8.90138
▁week	-8.90644
▁km	-8.90721
▁character	-8.90884
ana	-8.91005
▁modern	-8.91119
▁hit	-8.91145
ran	-8.9118
▁every	-8.91238
▁Mario	-8.91327
▁pass	-8.91415
▁Wales	-8.91493
mer	-8.91562
▁31	-8.91608
▁Army	-8.91654
▁1970	-8.92002
▁remain	-8.92085
men	-8.92112
▁1997	-8.92263
▁Greek	-8.92359
▁Atlantic	-8.92614
▁Olympics	-8.92893
▁depression	-8.93187
▁Northern	-8.93295
▁states	-8.93295
▁included	-8.934
▁Mi	-8.93416
pl	-8.93566
ko	-8.93582
▁Football	-8.93606
▁coast	-8.93815
▁off	-8.93849
▁among	-8.93926
fin	-8.943
▁Latin	-8.94492
▁Italian	-8.94557
▁We	-8.94696
▁Gi	-8.94728
▁Ke	-8.94742
▁novel	-8.95054
▁Ru	-8.95155
▁Am	-8.95159
▁Western	-8.95461
ö	-8.9556
▁church	-8.95619
ai	-8.95656
▁department	-8.95672
▁position	-8.95777
▁great	-8.95788
chi	-8.95816
▁Virginia	-8.9587
▁Dr	-8.96081
▁western	-8.96219
ick	-8.96221
vo	-8.96347
que	-8.96482
ris	-8.96491
▁similar	-8.96533
▁college	-8.96641
ture	-8.96715
▁wrote	-8.96749
▁gold	-8.96778
▁1992	-8.96816
▁right	-8.97188
bi	-8.97188
und	-8.97208
▁African	-8.97288
gar	-8.97365
▁Han	-8.9757
▁coul	-8.97595
▁color	-8.97621
pi	-8.97676
▁Pe	-8.97718
▁president	-8.97816
▁much	-8.97933
▁bo	-8.98033
▁political	-8.98037
▁take	-8.98046
▁Soviet	-8.98112
▁Earth	-8.98222
▁1994	-8.98232
end	-8.9829
▁organ	-8.98364
▁Council	-8.98441
▁building	-8.98545
uc	-8.98591
ory	-8.98681
yn	-8.98692
port	-8.98846
▁eastern	-8.9886
▁Series	-8.98921
▁Th	-8.99176
▁Rock	-8.99245
▁Ju	-8.99412
hose	-8.9953
ise	-8.99569
▁Bur	-8.99632
▁opened	-8.99653
▁party	-8.99667
▁Sun	-8.99825
▁field	-8.99907
ator	-8.99944
▁50	-8.99968
▁Min	-9.00002
▁High	-9.00042
▁old	-9.00074
▁sign	-9.00386
▁upgrad	-9.00505
qu	-9.00778
▁see	-9.00799
▁Spanish	-9.00837
▁Most	-9.00983
ung	-9.01069
▁free	-9.0108
ball	-9.01085
▁Division	-9.01233
8	-9.01534
using	-9.01549
ix	-9.0158
▁Pre	-9.01787
ight	-9.0179
▁Billboard	-9.01802
▁low	-9.01887
▁me	-9.01898
van	-9.02034
her	-9.02045
ey	-9.02106
▁help	-9.0221
▁few	-9.0226
▁type	-9.0246
▁light	-9.0249
tal	-9.02515
▁Louis	-9.0257
▁Ch	-9.02611
sta	-9.0263
▁These	-9.02644
▁teams	-9.02712
▁Illinois	-9.02773
▁appoint	-9.02773
▁Scotland	-9.02888
we	-9.02959
▁originally	-9.02994
▁white	-9.03071
á	-9.03217
▁Bi	-9.03274
▁plays	-9.03283
gue	-9.03289
▁Queen	-9.03291
▁eight	-9.03291
▁1960	-9.03302
▁Mon	-9.03462
▁down	-9.0348
▁Du	-9.03521
▁living	-9.03645
cu	-9.0375
—	-9.0375
▁Music	-9.03753
▁due	-9.03779
ile	-9.03876
ors	-9.04049
▁bi	-9.04171
ement	-9.04212
▁Russian	-9.04322
▁what	-9.04355
▁General	-9.04519
▁Robert	-9.04533
▁Star	-9.04678
▁Mac	-9.04688
▁Sch	-9.04803
▁met	-9.04896
▁office	-9.04915
ep	-9.05012
▁Michael	-9.05099
▁design	-9.05297
▁Hockey	-9.05335
cc	-9.05366
ev	-9.05396
gr	-9.05429
▁allow	-9.05429
▁Awards	-9.0545
▁With	-9.05542
▁village	-9.05571
ett	-9.05586
having	-9.05704
▁half	-9.05755
▁Saint	-9.05811
▁Black	-9.05828
old	-9.05896
▁means	-9.05979
▁By	-9.05992
▁Br	-9.06008
▁function	-9.06046
▁languages	-9.06123
ier	-9.06297
▁Charles	-9.06351
han	-9.06529
▁days	-9.06547
▁My	-9.06564
▁discover	-9.06584
▁Day	-9.06615
▁Paris	-9.06647
▁Catholic	-9.06701
▁Un	-9.07004
▁killed	-9.07044
▁actress	-9.07121
and	-9.07151
▁process	-9.0724
▁Court	-9.07482
▁1991	-9.07493
▁post	-9.07632
▁female	-9.07722
log	-9.07778
tan	-9.0781
▁way	-9.07835
▁officially	-9.07964
▁points	-9.08158
▁cause	-9.08345
▁even	-9.08361
▁does	-9.08601
▁gra	-9.08718
all	-9.08815
▁commonly	-9.08848
▁First	-9.08877
▁Airport	-9.08895
▁space	-9.09062
▁element	-9.09184
▁successful	-9.09312
▁Ocean	-9.09367
▁Prize	-9.09495
▁Spain	-9.09552
▁human	-9.09597
res	-9.09638
year	-9.09805
if	-9.09818
▁black	-9.09859
▁God	-9.09911
▁biggest	-9.09982
▁Richard	-9.09987
ting	-9.1008
▁mountain	-9.10168
▁level	-9.10328
less	-9.10439
▁strong	-9.10478
▁division	-9.10665
▁Mu	-9.10737
▁force	-9.10816
▁start	-9.10929
▁Governor	-9.10976
▁Green	-9.11411
▁Nintendo	-9.11539
▁Force	-9.11658
▁BC	-9.11876
▁military	-9.11917
▁young	-9.12012
▁Association	-9.12043
▁2016	-9.12061
▁li	-9.12359
▁Christian	-9.12413
▁caus	-9.12471
▁Act	-9.12511
▁Henry	-9.12616
ore	-9.12709
▁replac	-9.12772
▁child	-9.12792
▁lo	-9.12914
▁Play	-9.12979
ino	-9.13028
fer	-9.13123
ney	-9.13138
▁1993	-9.13576
tin	-9.13608
ness	-9.13658
▁referr	-9.13692
▁divided	-9.13889
▁Mor	-9.14062
fe	-9.1431
▁damage	-9.14352
▁Open	-9.14411
0	-9.14899
du	-9.14962
eg	-9.15064
▁Bra	-9.15144
▁artist	-9.15274
▁program	-9.15544
▁Russia	-9.1559
▁continu	-9.15604
▁model	-9.15774
7	-9.15788
pur	-9.15987
ple	-9.16045
lay	-9.16142
let	-9.16154
▁Carolina	-9.1636
▁exist	-9.16447
▁winning	-9.16457
▁Parliament	-9.16492
▁Chi	-9.16564
▁hand	-9.1661
’	-9.1669
▁And	-9.1678
▁Can	-9.16858
▁go	-9.16875
ng	-9.16905
▁Tri	-9.17055
▁k	-9.17151
▁Col	-9.17208
▁Empire	-9.1722
ica	-9.17361
▁Y	-9.17381
ren	-9.17413
▁Ben	-9.17478
▁site	-9.17504
▁service	-9.17543
▁lived	-9.17652
▁Sc	-9.17678
0,000	-9.17829
▁peak	-9.17865
▁Ver	-9.18005
▁vote	-9.18062
▁close	-9.18182
▁Asia	-9.1819
rr	-9.18196
▁Disney	-9.18289
20	-9.18307
rie	-9.1848
10	-9.18598
rit	-9.18872
kin	-9.18933
▁Mary	-9.19039
▁1989	-9.19178
▁awarded	-9.19236
▁cancer	-9.19372
▁though	-9.19382
ny	-9.19468
▁1984	-9.19517
▁1988	-9.1959
▁formula	-9.19622
act	-9.19665
▁either	-9.19733
low	-9.1974
▁reported	-9.1975
▁Jersey	-9.19776
▁scored	-9.19862
ual	-9.19948
▁Com	-9.19948
ug	-9.2005
▁Or	-9.20063
car	-9.20131
▁natural	-9.20186
iv	-9.20397
▁together	-9.20399
head	-9.20481
▁story	-9.20739
▁less	-9.20759
▁mid	-9.2101
▁Zealand	-9.21149
▁mass	-9.21315
▁Che	-9.21403
▁If	-9.21425
▁Winter	-9.21455
▁real	-9.21509
iz	-9.2181
▁Netherlands	-9.21842
fi	-9.21998
▁hold	-9.21998
▁White	-9.22074
form	-9.22155
▁Har	-9.22186
ari	-9.22296
signed	-9.22314
▁parts	-9.22336
▁production	-9.22353
▁mo	-9.22361
▁Islands	-9.2251
▁Prince	-9.22558
▁Democratic	-9.22571
▁Ya	-9.22677
▁special	-9.22689
▁Pacific	-9.2275
▁flow	-9.22877
▁Province	-9.22891
▁copie	-9.22921
ities	-9.23206
▁Switzerland	-9.23314
qua	-9.23323
tur	-9.23332
J	-9.23506
▁nominat	-9.23522
red	-9.2356
▁tournament	-9.23596
art	-9.23637
▁Center	-9.23741
▁From	-9.23741
▁David	-9.2388
▁1986	-9.24038
▁Port	-9.24062
ik	-9.24167
▁Senate	-9.24522
▁starr	-9.24547
▁1987	-9.24611
▁change	-9.24651
▁JM	-9.24779
bra	-9.24796
▁Ku	-9.24885
▁Fe	-9.24941
ff	-9.25305
ze	-9.25335
▁least	-9.25385
▁average	-9.25457
largest	-9.25639
▁ice	-9.25654
rac	-9.25743
ji	-9.25849
tch	-9.25901
▁author	-9.25921
▁sixth	-9.25974
▁Game	-9.25978
▁voice	-9.26107
king	-9.26114
ker	-9.26334
▁Fl	-9.2638
▁metal	-9.26434
▁control	-9.26607
cent	-9.26739
▁court	-9.26763
▁director	-9.2686
berg	-9.27163
▁nation	-9.27277
▁Scottish	-9.27358
▁Records	-9.27434
▁park	-9.27465
▁retired	-9.27608
▁arm	-9.27623
▁Tour	-9.27646
▁across	-9.27846
▁resid	-9.27885
▁performance	-9.2791
▁ch	-9.27997
▁JT	-9.28186
▁Hot	-9.28224
▁Tropical	-9.28307
gh	-9.28318
▁sister	-9.28534
▁Fu	-9.28592
▁aircraft	-9.28689
▁super	-9.28706
▁Mal	-9.28734
▁Hill	-9.28843
▁Si	-9.28856
▁Jackson	-9.28858
▁ha	-9.28867
.5	-9.29011
can	-9.29035
ä	-9.29049
ition	-9.2906
ec	-9.29067
ya	-9.29081
▁Ex	-9.29369
ram	-9.2941
WC	-9.29471
▁Fi	-9.29867
ü	-9.29878
▁Ti	-9.29895
▁Year	-9.29936
▁success	-9.29962
▁red	-9.29988
50	-9.30055
▁1950	-9.30056
▁1979	-9.30118
▁spoken	-9.3015
▁Boy	-9.30247
▁claim	-9.30256
▁Britain	-9.30256
▁radio	-9.30345
▁get	-9.30472
▁1983	-9.30574
lam	-9.30585
▁Victoria	-9.30593
▁act	-9.30593
▁islands	-9.30663
cha	-9.30689
▁Eastern	-9.30713
▁featur	-9.30734
▁Nor	-9.30874
▁rais	-9.30905
▁study	-9.30939
▁various	-9.31015
▁friend	-9.31016
ology	-9.31201
▁lake	-9.31261
▁Love	-9.31363
▁standard	-9.31409
▁politician	-9.31487
▁Tra	-9.31585
stead	-9.3163
▁complete	-9.31651
▁pressure	-9.3171
▁Senna	-9.31782
ib	-9.31812
▁style	-9.31813
ea	-9.31839
▁Nobel	-9.31872
▁independent	-9.32028
▁1981	-9.32029
X	-9.32038
í	-9.3212
▁coach	-9.32179
▁airport	-9.3227
▁Formula	-9.32322
ou	-9.32345
▁track	-9.324
▁charge	-9.32476
BA	-9.32559
rat	-9.32649
▁earn	-9.32863
▁Edward	-9.33034
tri	-9.33251
▁object	-9.33251
▁mostly	-9.33306
▁Chinese	-9.33408
▁1982	-9.33423
ult	-9.33463
▁1974	-9.33734
▁ever	-9.33755
▁meaning	-9.33763
▁star	-9.3381
stan	-9.33878
▁base	-9.3389
ps	-9.34047
nes	-9.34137
most	-9.3414
▁disease	-9.34192
shi	-9.3432
ash	-9.34327
▁1985	-9.34369
▁estimat	-9.34586
ay	-9.34602
▁becom	-9.34635
▁unit	-9.34648
▁launch	-9.34665
▁development	-9.34689
▁give	-9.34792
ku	-9.34809
ee	-9.34826
▁Ki	-9.34836
▁areas	-9.34839
▁Bank	-9.34921
▁Prost	-9.34943
▁sports	-9.35227
mm	-9.35265
▁cell	-9.35505
itt	-9.35512
ble	-9.35567
▁followed	-9.35586
▁Peter	-9.3564
town	-9.35818
▁Kar	-9.35826
▁Sinc	-9.35938
▁Berger	-9.36021
rk	-9.36048
row	-9.36069
▁Cal	-9.36145
ox	-9.36155
▁refer	-9.36293
▁separate	-9.36333
▁you	-9.36395
▁cross	-9.36404
ara	-9.36415
▁hockey	-9.3642
▁double	-9.3642
▁En	-9.36422
ack	-9.36452
▁chemical	-9.365
▁bank	-9.3667
▁move	-9.36698
▁1976	-9.3676
▁Congress	-9.36823
▁Qu	-9.37028
▁Compan	-9.3713
▁introduced	-9.37147
▁serve	-9.37165
og	-9.37215
mal	-9.37275
▁particular	-9.37309
over	-9.37508
▁fish	-9.37716
▁Secretary	-9.37722
▁range	-9.37724
▁Song	-9.37763
▁never	-9.37789
▁contract	-9.37798
▁Republican	-9.37819
ink	-9.37953
▁Bill	-9.37966
▁compet	-9.37987
▁fire	-9.37999
▁Big	-9.38032
▁network	-9.38125
▁songs	-9.38134
▁opera	-9.38283
▁Ontario	-9.38288
▁Southern	-9.38295
sur	-9.38479
thing	-9.3867
▁Cla	-9.38811
▁king	-9.38814
▁200	-9.38881
ose	-9.38897
xi	-9.3891
▁Street	-9.3903
▁heart	-9.39035
sha	-9.39264
off	-9.39279
ock	-9.39525
▁tree	-9.39571
▁Gar	-9.39577
▁Tom	-9.39585
▁writer	-9.39766
▁Dutch	-9.39872
▁movement	-9.39898
▁40	-9.39937
▁According	-9.39942
▁research	-9.40025
▁Dan	-9.40039
▁ship	-9.4005
▁Old	-9.40124
sky	-9.40166
▁compos	-9.40189
▁open	-9.40263
▁size	-9.40331
▁Wi	-9.40437
▁source	-9.40444
▁br	-9.40478
▁defin	-9.40564
▁business	-9.40611
▁Irish	-9.4062
ez	-9.40879
▁Sha	-9.40913
▁Del	-9.40965
▁blue	-9.41035
gro	-9.41044
▁Hi	-9.41093
▁sequel	-9.412
▁Windows	-9.41201
▁battle	-9.41201
ful	-9.41205
▁ground	-9.41206
▁computer	-9.41216
vel	-9.41269
▁household	-9.4137
▁road	-9.4137
burg	-9.41389
▁wrestler	-9.41461
bin	-9.41631
ric	-9.41688
▁Ge	-9.41688
▁1972	-9.41724
az	-9.41731
uch	-9.4175
of	-9.41766
▁Boston	-9.418
▁Brazil	-9.41829
▁Mc	-9.41922
▁comedy	-9.41966
ban	-9.41982
▁III	-9.42004
▁producer	-9.42072
▁Tu	-9.42081
▁outside	-9.42126
lf	-9.4214
▁canton	-9.42155
▁Mark	-9.42302
cle	-9.42309
▁Champion	-9.42458
▁Line	-9.42658
▁Bre	-9.42715
▁degree	-9.42817
▁graduat	-9.42819
▁Valley	-9.42843
▁Sal	-9.42894
▁Ed	-9.43071
rus	-9.43081
▁action	-9.43095
▁Je	-9.43212
uk	-9.43222
▁1968	-9.43264
▁Raw	-9.43278
▁above	-9.43336
▁nine	-9.43495
ery	-9.43507
▁woman	-9.43507
▁almost	-9.43542
▁Hurricane	-9.43679
▁Georgia	-9.43821
▁once	-9.44003
east	-9.44018
▁Thomas	-9.44026
par	-9.44057
mu	-9.44121
▁counties	-9.44173
▁edition	-9.44233
▁While	-9.44271
zo	-9.44367
▁Ohio	-9.44374
▁science	-9.44549
▁ball	-9.44578
▁select	-9.44729
▁Club	-9.44812
–19	-9.44956
▁flag	-9.4499
▁seasons	-9.45077
▁Pennsylvania	-9.45161
▁gave	-9.45166
▁cat	-9.45198
▁champion	-9.45232
▁tour	-9.45275
▁date	-9.45291
cal	-9.45312
▁1967	-9.45354
▁Golden	-9.45375
▁blood	-9.45425
▁Martin	-9.45479
ection	-9.45517
ious	-9.45556
▁Korea	-9.45734
▁bar	-9.45735
▁wide	-9.45834
ria	-9.45839
▁attend	-9.45974
▁Battle	-9.45975
▁good	-9.45996
lock	-9.46042
▁opponent	-9.46044
mor	-9.46083
▁musical	-9.46083
▁Berlin	-9.46084
▁forces	-9.46099
▁Val	-9.461
ating	-9.46109
▁TV	-9.46121
▁Blue	-9.46136
▁finish	-9.46231
ugh	-9.46351
ative	-9.46395
stra	-9.46426
cor	-9.46482
vin	-9.46503
▁goal	-9.46523
hor	-9.46523
fl	-9.46547
▁renam	-9.46625
zi	-9.46661
▁instrument	-9.46666
▁But	-9.46679
▁vi	-9.4694
▁availab	-9.46957
▁stars	-9.46994
nder	-9.47097
▁People	-9.47113
part	-9.47182
▁energy	-9.47202
▁stadium	-9.47202
▁Stanley	-9.47217
▁1975	-9.47218
▁winner	-9.47377
30	-9.47378
well	-9.47393
▁Prix	-9.47416
▁Fame	-9.47475
▁0	-9.47503
▁Two	-9.47515
▁Show	-9.47533
▁must	-9.47583
illa	-9.47631
▁fight	-9.47642
▁1973	-9.47668
▁appearance	-9.47729
▁entire	-9.47742
▁Q	-9.47767
▁leading	-9.47885
▁genus	-9.47927
▁Columbia	-9.48012
▁headquarter	-9.48012
▁letter	-9.48014
▁primar	-9.48162
wood	-9.48187
▁surface	-9.48193
▁Sh	-9.48199
▁feature	-9.48235
day	-9.48244
▁Middle	-9.48288
▁Many	-9.48354
▁thought	-9.48411
Station	-9.48494
▁rest	-9.48583
▁case	-9.48678
ew	-9.48696
_	-9.4892
ough	-9.48925
▁mi	-9.49117
mate	-9.49296
▁structure	-9.49377
▁behind	-9.49378
▁train	-9.4941
mun	-9.4947
▁Museum	-9.49653
▁larger	-9.49688
▁market	-9.4969
▁food	-9.4969
▁should	-9.49836
▁Mountain	-9.49837
▁broadcast	-9.49928
▁temperature	-9.49928
▁trans	-9.50053
▁Es	-9.50073
sis	-9.5008
ert	-9.50211
▁1978	-9.50223
▁metropolitan	-9.50298
▁acid	-9.50347
play	-9.504
ette	-9.50408
ola	-9.50519
▁test	-9.5053
▁Pu	-9.50599
hr	-9.50654
▁approximately	-9.5068
ought	-9.5074
▁System	-9.50761
▁competition	-9.50772
▁working	-9.50951
▁NFL	-9.50964
▁books	-9.51108
▁Va	-9.51198
▁got	-9.51217
12	-9.51267
lar	-9.51357
ways	-9.51379
▁Land	-9.5158
ular	-9.51584
▁lower	-9.51607
▁designed	-9.51663
ius	-9.51785
▁gas	-9.51849
▁sent	-9.51901
▁commercial	-9.51976
▁key	-9.5206
▁Final	-9.52097
ek	-9.52098
▁class	-9.52142
▁Gre	-9.52232
▁players	-9.52326
▁Pan	-9.52374
▁want	-9.52374
65	-9.52445
lli	-9.52491
stone	-9.52574
▁far	-9.52704
bor	-9.52843
9	-9.52875
jo	-9.52894
lla	-9.52918
ala	-9.52943
▁1969	-9.53035
▁Bal	-9.53145
cul	-9.53199
▁Sta	-9.53234
▁works	-9.53286
▁premier	-9.53397
▁1977	-9.53417
cho	-9.53429
ei	-9.53458
▁Government	-9.53492
▁1965	-9.53517
phy	-9.53538
▁regular	-9.53587
▁federal	-9.53588
▁Tru	-9.53593
▁count	-9.53636
▁chang	-9.53645
▁Wrestling	-9.53683
dge	-9.53686
▁branch	-9.53875
▁seventh	-9.5392
▁Oklahoma	-9.5397
▁Area	-9.54115
▁put	-9.54176
▁pi	-9.54298
efore	-9.54441
▁Massachusetts	-9.54451
▁Finland	-9.54452
▁civil	-9.54595
▁critic	-9.54691
▁visit	-9.54744
▁1971	-9.54857
▁Ph	-9.54865
▁Sir	-9.54906
▁Santa	-9.54909
▁Israel	-9.54922
▁1964	-9.5495
▁Wo	-9.54972
▁turn	-9.54987
▁Austria	-9.55012
ional	-9.5505
my	-9.55087
▁night	-9.55094
▁longest	-9.55162
▁taken	-9.55195
▁goals	-9.55239
▁private	-9.5542
▁Women	-9.55434
▁Premier	-9.55517
▁newspaper	-9.55614
▁Pla	-9.55653
▁award	-9.55664
rate	-9.55719
▁numbers	-9.55723
▁Lee	-9.55731
▁airline	-9.55784
▁Department	-9.55907
▁Swedish	-9.56103
▁Men	-9.56246
▁That	-9.56289
▁students	-9.56295
▁Manchester	-9.56309
40	-9.56373
▁port	-9.56457
▁r	-9.56475
▁cells	-9.56559
▁Mansel	-9.56628
▁pop	-9.5669
▁Ab	-9.56703
rew	-9.56712
▁declar	-9.56792
▁adopt	-9.56792
lon	-9.57008
▁anti	-9.57048
pro	-9.571
ese	-9.57109
▁meter	-9.57203
▁article	-9.57386
▁Son	-9.57524
west	-9.57589
ole	-9.57638
88	-9.57682
▁Philippines	-9.57709
mat	-9.57724
rin	-9.5777
▁project	-9.57784
lum	-9.57852
▁ring	-9.57903
ring	-9.58044
lia	-9.58096
▁Poland	-9.58104
▁recogniz	-9.58183
▁Second	-9.58283
▁worldwide	-9.58303
▁addition	-9.58345
uck	-9.58352
▁films	-9.58464
ux	-9.58533
▁male	-9.58533
38	-9.58535
▁Christ	-9.58547
lie	-9.58587
▁protect	-9.58601
▁occur	-9.58672
▁silver	-9.58684
▁itself	-9.58685
▁drama	-9.58767
▁front	-9.58784
▁community	-9.58785
▁describ	-9.58835
▁imp	-9.58837
ray	-9.58923
▁related	-9.59036
net	-9.5904
▁Lord	-9.59071
ington	-9.59099
▁widely	-9.59222
▁especial	-9.5939
▁Major	-9.59391
cher	-9.59483
▁Night	-9.59585
ken	-9.5962
▁1920	-9.59632
▁organization	-9.59764
avyweight	-9.59874
▁surviv	-9.59898
rap	-9.60015
▁mainly	-9.60038
▁minor	-9.60053
▁Elizabeth	-9.60102
▁Kansas	-9.60103
nic	-9.60169
▁BBC	-9.60204
▁away	-9.60208
▁prime	-9.60309
-19	-9.60339
ura	-9.60361
▁studi	-9.60363
▁mis	-9.60469
▁typical	-9.60511
▁relative	-9.60523
▁roles	-9.60527
▁speak	-9.60541
▁Fall	-9.60561
▁Michigan	-9.60613
▁owned	-9.60622
▁today	-9.60627
ani	-9.60636
▁orchestra	-9.60716
▁ancient	-9.60716
pat	-9.60724
▁brand	-9.6075
▁billion	-9.60761
▁southeast	-9.60859
▁flight	-9.60859
▁simply	-9.60921
▁Institute	-9.60921
▁nomination	-9.60984
▁Is	-9.60993
▁ran	-9.60996
▁Tre	-9.61101
▁ranked	-9.61101
▁compound	-9.6123
▁fall	-9.61234
▁Hol	-9.61246
ome	-9.61274
▁Maria	-9.61295
▁need	-9.61315
▁Committee	-9.61436
▁composer	-9.61437
▁beginning	-9.61541
▁requir	-9.61546
tern	-9.61587
87	-9.61596
unt	-9.61602
▁associat	-9.61722
▁Championships	-9.61736
▁Census	-9.61747
▁Up	-9.61816
▁birth	-9.61844
▁Bangladesh	-9.61851
▁1930	-9.61881
▁individual	-9.61955
▁singles	-9.62011
▁Ser	-9.6209
▁majority	-9.62131
▁Navy	-9.62164
▁influence	-9.62165
je	-9.6221
▁Team	-9.62348
▁native	-9.62402
▁product	-9.62425
▁makes	-9.6257
55	-9.62826
elling	-9.62867
▁1963	-9.62914
▁symbol	-9.62999
▁weeks	-9.6304
▁Constitution	-9.63104
▁remained	-9.63126
▁increase	-9.63314
ort	-9.63319
▁Joseph	-9.63327
ists	-9.63337
née	-9.63355
▁complet	-9.63387
▁districts	-9.63434
▁provide	-9.63478
▁multi	-9.63519
▁railway	-9.63538
▁1966	-9.63551
▁Mount	-9.63552
bert	-9.63558
▁FIFA	-9.63737
▁initial	-9.63743
▁planet	-9.63763
hen	-9.63827
66	-9.63909
▁Vo	-9.63925
▁overall	-9.63944
▁Fo	-9.63966
▁Art	-9.64096
tar	-9.64097
▁smaller	-9.64106
▁Philadelphia	-9.64161
▁destroy	-9.64161
wal	-9.64217
▁compete	-9.6422
bre	-9.64233
ecause	-9.64235
▁operat	-9.64253
▁Sam	-9.6432
pri	-9.64373
▁draft	-9.6448
▁middle	-9.64484
▁wh	-9.64642
ush	-9.64745
▁Beach	-9.64769
▁bridge	-9.64793
tag	-9.64806
92	-9.64828
▁Er	-9.64837
▁come	-9.64841
▁parents	-9.64887
▁Bridge	-9.64954
▁para	-9.64994
worth	-9.65024
hy	-9.65172
▁square	-9.65229
▁recording	-9.65315
ano	-9.65329
▁eventual	-9.65375
▁education	-9.65408
▁Smith	-9.65444
▁1961	-9.65457
rid	-9.65474
▁Grammy	-9.65551
85	-9.65562
▁events	-9.6562
15	-9.65641
▁further	-9.65659
▁leg	-9.65709
ised	-9.65735
48	-9.65807
42	-9.6584
▁length	-9.65938
▁Over	-9.6595
▁animals	-9.65956
▁miles	-9.66031
▁Rome	-9.66034
▁idea	-9.66073
▁green	-9.66091
▁Van	-9.66121
▁engine	-9.66153
▁face	-9.66187
oma	-9.66215
▁Egypt	-9.66258
▁schools	-9.66262
▁Album	-9.66308
▁Road	-9.66313
▁Patrese	-9.66417
▁Don	-9.66481
▁Luc	-9.66485
cation	-9.66521
▁Punjab	-9.66525
▁Under	-9.66532
▁Frank	-9.6656
▁Out	-9.66628
▁campus	-9.6672
▁tall	-9.66795
▁himself	-9.66852
▁1945	-9.66869
▁groups	-9.67015
▁Pri	-9.67175
win	-9.67239
▁ju	-9.67301
use	-9.67347
[	-9.67399
▁whom	-9.67465
,2	-9.67545
▁added	-9.67666
▁read	-9.67723
▁northwest	-9.67769
ible	-9.67879
▁annual	-9.6795
▁Pol	-9.6798
▁northeast	-9.67995
q	-9.68071
▁Iowa	-9.68171
▁driver	-9.68257
oli	-9.68309
▁equal	-9.68392
▁social	-9.68392
▁Missouri	-9.68502
▁1948	-9.68528
▁Au	-9.68827
▁southwest	-9.68874
▁pick	-9.68906
▁Mad	-9.6893
ving	-9.69016
▁semi	-9.69082
▁atom	-9.69087
▁celebrat	-9.6917
▁popul	-9.6917
▁comes	-9.69256
MA	-9.69289
▁presidential	-9.69335
bro	-9.69354
▁calendar	-9.69393
▁active	-9.69459
▁Duke	-9.69473
▁follow	-9.69491
▁Wood	-9.69671
▁movies	-9.69745
▁Chart	-9.69834
▁features	-9.69869
▁Storm	-9.69891
▁types	-9.69903
▁husband	-9.69955
▁Francisco	-9.69977
▁1940	-9.69985
tant	-9.70025
▁big	-9.70034
pre	-9.70195
▁merg	-9.70208
▁Representatives	-9.70245
vol	-9.70288
▁Muslim	-9.70293
▁material	-9.70293
▁Ber	-9.70371
▁orbit	-9.7038
ane	-9.70429
dom	-9.70437
▁writing	-9.70519
▁situat	-9.70534
▁Shi	-9.70534
▁economic	-9.70555
18	-9.70567
▁section	-9.70608
▁previously	-9.70806
rated	-9.70808
▁Wii	-9.70868
▁1947	-9.70996
▁Jr	-9.71049
▁involv	-9.71153
▁div	-9.71208
mic	-9.71228
▁administrative	-9.71428
▁magazine	-9.71428
▁Town	-9.71431
▁1952	-9.71448
▁Win	-9.71461
▁significant	-9.71468
▁Ze	-9.71481
17	-9.71506
▁Bowl	-9.71662
▁Other	-9.71668
▁mathematic	-9.71772
▁Conference	-9.71772
▁historical	-9.71784
▁believe	-9.71852
▁families	-9.72001
ization	-9.72061
▁Pope	-9.72095
▁Jack	-9.72137
▁Fox	-9.72157
▁Mer	-9.7219
▁lie	-9.72205
▁territory	-9.72231
gate	-9.72232
▁Gal	-9.72291
von	-9.72346
▁Tim	-9.72453
tel	-9.7247
▁summer	-9.72472
▁pay	-9.72484
▁dr	-9.72593
▁previous	-9.72632
▁honor	-9.72695
▁sport	-9.72736
▁Toronto	-9.72809
▁Smack	-9.72809
rb	-9.72994
▁Time	-9.73087
▁rate	-9.73268
▁sound	-9.73277
:	-9.73366
▁Law	-9.73403
cell	-9.73451
▁location	-9.73454
▁below	-9.73487
97	-9.73547
76	-9.73584
▁higher	-9.73614
Y	-9.73687
▁attempt	-9.73739
▁condition	-9.7374
▁Jesus	-9.73745
▁Life	-9.73789
uff	-9.73795
ju	-9.73803
▁effect	-9.73814
itz	-9.73832
▁Wal	-9.73908
▁according	-9.73945
81	-9.73951
▁electric	-9.73993
▁we	-9.74008
Down	-9.74104
bul	-9.74183
▁hard	-9.74205
▁rights	-9.74233
▁Spring	-9.74348
▁Group	-9.74349
tz	-9.74366
ita	-9.74374
▁characters	-9.74424
tes	-9.7445
▁conduct	-9.74495
▁Ven	-9.74562
▁value	-9.74563
▁su	-9.74623
American	-9.74703
▁enter	-9.74749
▁Kong	-9.74752
▁Thu	-9.74774
▁fact	-9.74785
▁culture	-9.74797
cus	-9.74804
▁view	-9.7481
bar	-9.74872
▁primari	-9.74959
rist	-9.75027
▁Ly	-9.75066
▁entered	-9.75152
▁Jewish	-9.75152
▁Region	-9.75194
top	-9.75206
▁Stadium	-9.75271
▁Ter	-9.7528
▁Cu	-9.75322
▁Far	-9.75357
▁borough	-9.75365
▁past	-9.75396
▁Top	-9.7549
▁Bros	-9.75523
cker	-9.7554
▁injur	-9.75613
▁Par	-9.75627
▁find	-9.75662
▁electron	-9.75694
ō	-9.75747
▁Hy	-9.75796
°	-9.75815
▁Science	-9.75866
▁break	-9.75867
▁regions	-9.75885
bit	-9.75941
▁traditional	-9.75954
▁piece	-9.7597
▁urban	-9.75987
▁1962	-9.76007
▁Korean	-9.76046
56	-9.76134
▁tell	-9.76171
▁candidate	-9.76225
ā	-9.76345
▁Alabama	-9.76345
▁Long	-9.7639
oo	-9.76396
86	-9.76448
▁Minnesota	-9.76465
▁musician	-9.76614
▁cap	-9.76686
▁Civil	-9.76705
▁defend	-9.76706
like	-9.76805
▁officer	-9.76809
▁Bla	-9.76991
▁Channel	-9.77067
tis	-9.7709
▁Young	-9.77109
kh	-9.7713
hol	-9.77165
▁Entertainment	-9.77188
house	-9.77221
▁offer	-9.77273
ama	-9.77288
back	-9.77325
–1	-9.77335
▁incorporat	-9.77356
,0	-9.77409
▁rank	-9.77416
59	-9.77593
▁subsequent	-9.77673
▁Water	-9.77677
▁cyclone	-9.77683
▁link	-9.77696
▁Airline	-9.77724
▁legal	-9.77734
▁governor	-9.77774
▁love	-9.77841
itch	-9.77877
▁report	-9.77881
for	-9.77911
▁1949	-9.77932
▁Ken	-9.77944
bal	-9.78005
▁dog	-9.78105
rad	-9.78119
▁Film	-9.78162
▁regard	-9.78162
▁particle	-9.78167
▁kind	-9.78192
▁Malaysia	-9.78208
▁Four	-9.78225
▁guitar	-9.78226
lip	-9.78239
▁Kan	-9.78279
▁trade	-9.78343
▁spin	-9.78374
▁Tor	-9.78417
▁police	-9.78529
ttle	-9.78548
ase	-9.78564
▁share	-9.78639
▁operation	-9.78655
▁code	-9.78659
▁beat	-9.78671
▁principal	-9.78773
95	-9.78787
nar	-9.78791
mph	-9.78794
ize	-9.7896
hal	-9.79022
▁actual	-9.79043
bur	-9.79108
▁my	-9.79165
▁confirm	-9.79266
▁Little	-9.79291
14	-9.79327
▁reaction	-9.79345
▁gu	-9.79406
▁1956	-9.79417
pen	-9.79448
mark	-9.79477
▁concert	-9.7954
ean	-9.79556
ctor	-9.79587
▁produce	-9.79611
▁wrestl	-9.79627
▁parish	-9.79657
ants	-9.79666
ue	-9.79688
▁McC	-9.79712
▁marriage	-9.79765
▁Service	-9.79886
▁Brazilian	-9.79959
54	-9.79971
known	-9.7999
77	-9.80031
▁mu	-9.80106
53	-9.8014
▁better	-9.80144
44	-9.80165
▁breed	-9.80188
▁god	-9.80219
▁Book	-9.80441
07	-9.80448
▁app	-9.80472
more	-9.80479
▁Orchestra	-9.80509
▁Federal	-9.8051
▁treat	-9.806
ata	-9.80615
▁Kentuck	-9.80638
▁develop	-9.80674
69	-9.80743
▁victory	-9.8076
ich	-9.80762
▁1958	-9.80782
▁1959	-9.80787
onic	-9.80862
▁remov	-9.80897
war	-9.80969
▁generation	-9.81027
tus	-9.81055
▁call	-9.81363
▁min	-9.81409
▁1957	-9.81414
▁Ste	-9.81435
▁extend	-9.81444
▁Highway	-9.81457
▁Paralympic	-9.81515
▁passenger	-9.81642
▁information	-9.81645
▁observ	-9.81646
▁leave	-9.81655
▁Cre	-9.81665
▁1954	-9.81667
46	-9.81669
47	-9.81714
▁Cat	-9.81753
ima	-9.81755
▁inhabitants	-9.8177
▁Three	-9.81782
▁Metropolitan	-9.81895
▁Home	-9.81895
▁units	-9.81899
▁collection	-9.819
▁Em	-9.8192
▁Early	-9.81951
ree	-9.81964
▁Xbox	-9.82149
▁Cross	-9.8215
▁Free	-9.82225
▁del	-9.82246
af	-9.82259
▁Vietnam	-9.82403
▁upon	-9.82439
seen	-9.82453
pool	-9.82474
▁greatest	-9.82511
▁Sydney	-9.82531
ene	-9.8257
▁Johnson	-9.8259
ena	-9.82633
▁Revolution	-9.82659
▁Mississippi	-9.82787
▁Taiwan	-9.82787
▁travel	-9.82847
▁board	-9.82855
11	-9.82857
spite	-9.8291
▁Chief	-9.82915
80	-9.82916
▁Str	-9.83086
▁Mel	-9.83144
▁campaign	-9.83171
▁sell	-9.83287
▁Singapore	-9.833
▁wave	-9.83309
gal	-9.8335
water	-9.83404
▁Supreme	-9.83428
▁Brown	-9.8343
13	-9.83436
▁services	-9.83438
▁colon	-9.83457
▁Bel	-9.83497
▁words	-9.8354
▁shot	-9.83558
▁Medal	-9.83731
▁Plan	-9.83773
led	-9.8384
pel	-9.83869
assi	-9.8387
▁Bout	-9.83889
▁Assembly	-9.83945
▁Girl	-9.83951
▁wind	-9.83991
▁promot	-9.84057
▁deriv	-9.84134
▁accept	-9.84205
cap	-9.84216
▁describe	-9.84293
.1	-9.84299
▁certain	-9.84334
▁Arm	-9.84336
▁Ham	-9.84402
▁basket	-9.84464
▁reason	-9.84466
16	-9.84487
▁Dam	-9.846
▁Good	-9.84601
▁Inter	-9.84643
pot	-9.84665
82	-9.84724
▁Hamilton	-9.84725
▁Nu	-9.84769
▁hours	-9.8486
▁Born	-9.84867
ella	-9.84868
▁Mil	-9.84976
▁suggest	-9.84986
▁1946	-9.85012
▁Will	-9.85012
poli	-9.85032
83	-9.85046
▁Pat	-9.85062
▁cast	-9.85179
▁bomb	-9.85183
▁store	-9.85185
99	-9.85304
▁amount	-9.85322
ott	-9.85376
▁Nations	-9.85423
nie	-9.85496
▁Festival	-9.8551
▁awards	-9.8552
67	-9.85559
▁succeed	-9.85642
▁suburb	-9.85645
57	-9.85673
▁figure	-9.85774
bel	-9.85791
▁dead	-9.85795
▁Lady	-9.85796
▁arriv	-9.85805
▁buri	-9.85859
▁say	-9.85969
view	-9.86008
▁Oxford	-9.86038
▁gain	-9.86065
▁na	-9.86108
▁Wikipedia	-9.8617
▁murder	-9.8617
▁draw	-9.86179
stein	-9.86179
▁eighth	-9.86241
90	-9.86273
ommonwealth	-9.86302
▁label	-9.86324
71	-9.86446
▁Cro	-9.86494
▁solo	-9.8656
▁Societ	-9.86568
▁pen	-9.86582
born	-9.86725
▁Pra	-9.8675
▁Gold	-9.86799
▁manager	-9.86838
▁1955	-9.86866
▁Miss	-9.86943
▁Alaska	-9.86968
▁Ang	-9.86973
dale	-9.87024
▁army	-9.87027
▁Ban	-9.87038
▁Comp	-9.8709
▁decided	-9.87096
CW	-9.87159
91	-9.87194
▁Polish	-9.87262
▁council	-9.87368
▁console	-9.8737
light	-9.87376
▁Cho	-9.87419
▁i	-9.87451
bury	-9.87479
▁Coast	-9.8751
air	-9.87575
▁Wisconsin	-9.87637
▁complex	-9.87637
▁—	-9.87648
▁ob	-9.87712
▁Today	-9.87807
▁Colorado	-9.87906
▁Pen	-9.88043
▁Bro	-9.88061
▁USA	-9.88068
▁possible	-9.8808
rather	-9.88082
78	-9.88162
▁animated	-9.88176
▁=	-9.88249
▁Melbourne	-9.88312
▁Later	-9.88363
ped	-9.88406
▁Ever	-9.88433
25	-9.88486
awa	-9.88513
▁interest	-9.88587
19	-9.88591
84	-9.88725
long	-9.8879
oid	-9.88805
68	-9.88996
▁happen	-9.89125
▁Gulf	-9.89194
▁fr	-9.8923
▁rec	-9.89255
▁Sri	-9.89282
▁belong	-9.89385
▁Duck	-9.89451
▁shark	-9.89471
▁resign	-9.89518
▁Za	-9.89535
▁1944	-9.89563
▁...	-9.89608
▁religion	-9.89672
stream	-9.8969
▁status	-9.89724
▁Ford	-9.89776
▁UEFA	-9.89809
▁twice	-9.89809
▁Ol	-9.89827
▁Williams	-9.8983
94	-9.8984
▁Gro	-9.89875
▁except	-9.8995
▁media	-9.90082
▁Albert	-9.90147
▁Piquet	-9.90222
▁piano	-9.90233
63	-9.90298
cat	-9.903
nother	-9.90322
▁Bull	-9.90339
ified	-9.90462
▁earlier	-9.90498
▁Ann	-9.90524
▁Jean	-9.90556
var	-9.90656
72	-9.90695
▁scale	-9.90784
▁connect	-9.90818
▁Ram	-9.90832
▁camp	-9.90885
▁viol	-9.90918
serv	-9.9094
ates	-9.90991
▁continue	-9.91053
89	-9.91082
FC	-9.91119
▁plan	-9.91119
▁60	-9.91175
▁distinct	-9.91191
▁Czech	-9.91192
▁distance	-9.91192
▁More	-9.91218
▁variet	-9.91242
aff	-9.91303
▁positive	-9.91331
▁sexual	-9.91339
▁Fort	-9.91342
▁1953	-9.91359
▁employ	-9.91361
▁Ten	-9.91409
▁Part	-9.91444
▁Senator	-9.9161
▁extra	-9.91692
▁nearly	-9.91693
▁deal	-9.91722
▁franchise	-9.9175
▁boy	-9.91765
nny	-9.91795
▁Office	-9.91824
▁farm	-9.91831
▁Alexander	-9.91891
▁gene	-9.91907
hin	-9.91992
▁saw	-9.92032
▁soon	-9.9206
▁captur	-9.92126
rum	-9.92154
▁document	-9.9217
▁Iran	-9.92171
▁minister	-9.92187
▁Azerbaijan	-9.92311
gon	-9.92325
▁Norwa	-9.92365
▁upper	-9.92368
ini	-9.92448
▁arrondissement	-9.92452
▁museum	-9.92452
▁carbon	-9.92453
▁self	-9.92457
▁via	-9.92544
▁done	-9.92594
osaur	-9.92774
▁Dar	-9.9283
mann	-9.92853
▁Follow	-9.92876
▁creat	-9.92876
▁Indonesia	-9.92876
▁Anne	-9.9288
▁Borough	-9.92881
phone	-9.92912
73	-9.92977
▁channel	-9.93017
▁mayor	-9.93037
▁Detroit	-9.93159
62	-9.93197
▁oil	-9.93217
▁Tro	-9.93222
anda	-9.93259
79	-9.93295
▁text	-9.93313
▁gun	-9.93334
▁Not	-9.93455
▁able	-9.93482
designated	-9.93488
▁income	-9.9352
▁older	-9.93553
▁commune	-9.93586
▁Theatre	-9.93596
▁poet	-9.93612
▁issue	-9.93614
▁Yu	-9.93615
▁Like	-9.93708
▁footballer	-9.93748
è	-9.93806
▁Louisiana	-9.93872
▁Mag	-9.93926
▁1939	-9.94034
▁box	-9.9406
▁Arts	-9.94084
▁look	-9.94108
pod	-9.94115
▁buildings	-9.94152
▁determin	-9.94159
wo	-9.94233
▁propos	-9.94302
▁Actor	-9.9432
75	-9.94407
▁manufactur	-9.94445
▁Bell	-9.94492
ically	-9.94508
▁smallest	-9.94518
▁kill	-9.9456
▁professor	-9.94589
▁institution	-9.94589
▁Labour	-9.94589
ó	-9.94672
▁da	-9.94716
▁Down	-9.94727
▁los	-9.94752
▁opening	-9.94792
21	-9.94823
idae	-9.94835
▁provid	-9.9486
▁Boeing	-9.94894
▁yards	-9.95024
▁receive	-9.95094
▁issued	-9.95095
▁Turkey	-9.95175
wan	-9.9519
▁acting	-9.95266
▁Hamp	-9.95374
▁playoff	-9.9538
▁subject	-9.95457
▁relationship	-9.95467
non	-9.9551
rian	-9.95544
74	-9.95563
70	-9.95631
▁true	-9.95723
action	-9.9576
▁baseball	-9.9577
▁thus	-9.95831
ound	-9.95843
▁Greece	-9.95894
▁fac	-9.96034
▁Walt	-9.96077
▁Mr	-9.96089
▁running	-9.96147
▁begin	-9.96157
▁organiz	-9.96164
▁Peninsula	-9.96185
▁1942	-9.9622
ali	-9.96275
hel	-9.96287
▁Stone	-9.96317
pan	-9.96342
▁rivers	-9.96452
▁girl	-9.9648
▁crime	-9.9648
lone	-9.96507
▁measure	-9.96518
01	-9.96539
▁practice	-9.96625
▁origin	-9.96642
▁partner	-9.96723
▁Microsoft	-9.96772
▁Rob	-9.96797
matic	-9.9684
▁Romania	-9.96843
▁Dynasty	-9.9692
▁table	-9.96972
▁founder	-9.97002
▁Dakota	-9.97067
▁chief	-9.97067
▁Municipality	-9.97077
▁little	-9.97081
▁carri	-9.97155
ero	-9.97188
▁nickname	-9.97215
▁Picture	-9.97215
▁wall	-9.97278
▁Tan	-9.97302
mission	-9.97326
▁Cape	-9.97349
▁Baltimore	-9.97363
▁Actress	-9.97367
▁speed	-9.974
▁Rio	-9.97451
▁grew	-9.9755
▁affect	-9.97694
▁longer	-9.9772
hood	-9.97783
ological	-9.97801
▁route	-9.97821
▁eye	-9.97866
▁Cam	-9.97882
based	-9.97944
▁Stra	-9.98037
HL	-9.98092
▁Emperor	-9.98106
▁Khan	-9.98106
▁Denmark	-9.98109
▁others	-9.98163
58	-9.98282
▁plane	-9.98317
▁500	-9.98339
▁Sand	-9.98361
night	-9.98386
▁Wil	-9.98422
60	-9.98458
gin	-9.98527
▁executive	-9.98585
▁par	-9.98614
▁pair	-9.98665
▁1951	-9.98704
▁Indiana	-9.98705
▁Age	-9.98716
mble	-9.98753
▁lives	-9.98766
▁Vice	-9.98846
▁machine	-9.98854
pu	-9.98995
▁Apple	-9.99007
98	-9.99019
▁youngest	-9.99112
▁money	-9.99183
▁Scott	-9.99216
▁learn	-9.99306
▁80	-9.99308
▁Ye	-9.99451
▁deliver	-9.99459
▁Director	-9.99506
▁Belgium	-9.99608
▁eleven	-9.99609
▁Draft	-9.99609
.2	-9.99609
▁Nazi	-9.99613
▁medical	-9.99618
▁1928	-9.99783
oon	-9.99862
▁Tennessee	-9.99912
▁stand	-9.99916
▁Mah	-10.0004
▁Yo	-10.0004
▁device	-10.0006
▁Bush	-10.0013
star	-10.0018
▁religious	-10.0022
▁universities	-10.0022
▁reign	-10.0022
ón	-10.0028
▁Hindu	-10.0037
ula	-10.0049
▁Connecticut	-10.0052
istic	-10.0056
▁wing	-10.0068
▁transport	-10.0069
▁industry	-10.0083
▁print	-10.0083
▁Cambridge	-10.0083
▁taking	-10.0083
▁racing	-10.0085
06	-10.0087
yan	-10.009
▁factor	-10.0094
atomic	-10.0098
▁grand	-10.0104
kar	-10.0105
▁paper	-10.0106
nam	-10.0109
▁tornado	-10.0113
▁conductor	-10.0116
rick	-10.0123
▁twenty	-10.0129
▁citizen	-10.0144
▁Network	-10.0144
▁nuclear	-10.0144
▁32	-10.0156
▁method	-10.016
craft	-10.0168
eng	-10.0179
ora	-10.018
▁settl	-10.018
▁Sports	-10.0185
▁provinces	-10.0186
▁Stan	-10.0188
▁bass	-10.0189
▁Caribbean	-10.0191
core	-10.02
▁deep	-10.0202
▁Sar	-10.0203
▁Commission	-10.0207
cular	-10.0216
▁Ali	-10.0218
▁towards	-10.0219
▁adult	-10.0223
▁Trans	-10.0223
▁score	-10.0227
▁Mur	-10.0235
▁wood	-10.0235
▁purpose	-10.0237
▁horse	-10.0238
▁Les	-10.0239
▁Mat	-10.024
▁Labor	-10.026
▁Blackhawk	-10.0269
▁severe	-10.0272
▁Globe	-10.0284
▁reduc	-10.0285
▁closed	-10.0288
▁Mid	-10.0295
▁+	-10.0297
▁Cuba	-10.0299
▁Library	-10.03
▁Lincoln	-10.03
▁Baseball	-10.03
▁1941	-10.0302
▁Sin	-10.0313
▁Territory	-10.0315
▁landfall	-10.0315
▁Met	-10.0315
▁portion	-10.0315
▁sing	-10.0316
▁Live	-10.0317
▁1936	-10.0317
▁rare	-10.0319
▁formal	-10.0324
300	-10.0331
probably	-10.0347
.0	-10.0348
bil	-10.0349
▁cur	-10.0353
▁Harry	-10.0359
64	-10.036
▁achiev	-10.0361
▁Triple	-10.0365
▁stay	-10.0366
▁collect	-10.0378
▁Moscow	-10.0378
▁Im	-10.0384
▁broke	-10.0385
▁data	-10.0387
▁room	-10.0393
▁Bat	-10.0396
▁heavy	-10.0398
▁Punk	-10.0399
▁Late	-10.04
▁Vancouver	-10.041
▁numero	-10.041
▁suffer	-10.041
▁Serbia	-10.0411
▁Lanka	-10.0411
▁forest	-10.0413
▁Depression	-10.0426
▁Brad	-10.0428
path	-10.0432
hop	-10.0441
▁straight	-10.0442
▁Emmy	-10.0443
▁Radio	-10.0449
▁prison	-10.0451
▁Heart	-10.0454
▁Dun	-10.0456
▁govern	-10.0457
▁loss	-10.047
▁Argentina	-10.0473
▁association	-10.0477
late	-10.0477
▁soldier	-10.0479
▁dance	-10.0479
fic	-10.0483
▁constitution	-10.0489
▁divorc	-10.049
▁Reagan	-10.0505
▁Bengal	-10.0508
▁hot	-10.0514
▁birds	-10.0515
▁ago	-10.052
▁athlete	-10.0537
▁starting	-10.0539
cia	-10.0545
▁induct	-10.0549
▁shoot	-10.0553
vor	-10.0565
52	-10.0575
▁Portuguese	-10.0586
▁Dream	-10.0586
▁jump	-10.059
▁guitarist	-10.0593
mmer	-10.0598
ili	-10.0599
▁Sunday	-10.0604
▁Reg	-10.0606
ski	-10.0612
door	-10.0616
▁split	-10.0619
▁Andrew	-10.062
▁x	-10.0631
▁names	-10.0638
-20	-10.0655
set	-10.0661
▁fail	-10.0665
▁independence	-10.0666
09	-10.067
wing	-10.0682
▁Joe	-10.069
▁Count	-10.0694
▁Mir	-10.0698
”	-10.0699
▁fla	-10.0714
▁philosoph	-10.0715
▁page	-10.0719
▁Hong	-10.0719
▁Federation	-10.0732
▁fast	-10.0735
▁Marine	-10.0737
ification	-10.0738
▁Fre	-10.0744
▁express	-10.0748
graph	-10.0748
▁whole	-10.0749
▁Ana	-10.0754
▁Quebec	-10.0764
▁cultural	-10.0764
▁Christmas	-10.0765
▁Swa	-10.0766
▁1918	-10.0768
▁bronze	-10.0781
she	-10.0786
▁Lind	-10.0786
▁Palm	-10.0791
–20	-10.0792
▁Orthodox	-10.0797
▁Para	-10.0807
▁Montrea	-10.0809
gl	-10.0814
▁prov	-10.0817
▁Way	-10.0822
▁systems	-10.0829
▁cost	-10.083
songwriter	-10.083
▁molecule	-10.083
▁Fair	-10.0832
▁Camp	-10.0844
▁Family	-10.0847
▁70	-10.085
35	-10.0853
▁737	-10.0867
▁studie	-10.0872
▁vehicle	-10.088
▁Railway	-10.088
▁physical	-10.088
▁future	-10.088
▁block	-10.0888
put	-10.0896
▁Arizona	-10.0897
▁Cena	-10.0912
▁morning	-10.0913
▁brain	-10.0914
▁“	-10.0918
▁Char	-10.093
-1	-10.093
▁Hart	-10.0931
▁albums	-10.0934
right	-10.095
▁originat	-10.0952
eb	-10.0954
▁Gall	-10.0956
▁plann	-10.0961
▁portray	-10.0965
▁humans	-10.0968
▁animal	-10.0968
▁Chile	-10.0971
45	-10.0977
▁mammal	-10.098
▁DNA	-10.098
▁add	-10.0988
▁invent	-10.0994
▁35	-10.0996
▁Afghanistan	-10.0997
▁owner	-10.0998
raw	-10.1002
▁infection	-10.1006
▁cru	-10.1007
▁responsib	-10.1013
▁cut	-10.1014
▁1922	-10.1016
▁direction	-10.1016
▁Fran	-10.1017
▁compani	-10.103
▁Space	-10.1031
▁Band	-10.1032
▁Chris	-10.1034
▁demo	-10.1039
▁Islam	-10.104
▁pole	-10.1046
elle	-10.1048
char	-10.1052
▁directly	-10.1052
ada	-10.1054
▁heat	-10.106
▁coin	-10.1061
▁valley	-10.1064
▁Palace	-10.1068
rim	-10.107
▁era	-10.1086
▁Oregon	-10.1098
03	-10.1104
▁Kat	-10.1111
▁protein	-10.1115
▁react	-10.1117
▁health	-10.1117
▁Tamil	-10.112
▁concept	-10.112
▁standing	-10.1127
▁focus	-10.1133
▁Sho	-10.1134
chu	-10.1135
▁mission	-10.1136
▁mark	-10.1137
fri	-10.1144
▁CBS	-10.1149
▁advanc	-10.1149
▁quickl	-10.1149
▁settlement	-10.115
uri	-10.1154
▁Tokyo	-10.1166
▁Corporation	-10.1183
▁improv	-10.1184
▁Austrian	-10.1187
rant	-10.1195
32	-10.1197
▁1938	-10.1205
▁Rose	-10.1207
▁drive	-10.1211
▁environment	-10.1218
▁arrest	-10.1218
▁create	-10.1224
▁races	-10.1226
▁card	-10.1234
▁hospital	-10.1235
▁touchdown	-10.1235
▁Daniel	-10.1235
▁foot	-10.1237
05	-10.125
▁micro	-10.1253
▁1937	-10.1254
▁Eu	-10.1266
▁bus	-10.1278
▁Six	-10.1282
▁fiction	-10.1282
▁Symphon	-10.1286
▁Houston	-10.1286
▁Internet	-10.1287
▁Bol	-10.1295
▁elections	-10.1295
▁Carl	-10.1303
tended	-10.1307
▁Wild	-10.1317
▁sitcom	-10.1321
▁Bureau	-10.1321
law	-10.1325
▁Tar	-10.1331
ood	-10.1332
▁Fire	-10.1335
abad	-10.1337
▁Wind	-10.134
▁multiple	-10.134
▁Mike	-10.1353
▁winter	-10.1355
▁access	-10.1356
37	-10.1357
▁How	-10.136
▁Tony	-10.1364
ception	-10.1364
▁vocal	-10.1367
▁Mayor	-10.137
▁account	-10.1373
▁Philip	-10.1375
rought	-10.1384
27	-10.1384
▁scor	-10.1386
▁Gri	-10.1387
▁respectively	-10.1391
terior	-10.1391
▁Fri	-10.1396
▁says	-10.1401
▁consecutive	-10.1408
▁Mus	-10.1413
▁Liberal	-10.1418
▁evidence	-10.1426
▁fat	-10.1427
▁cases	-10.1432
▁mean	-10.1436
▁teacher	-10.1444
▁moon	-10.1444
▁frog	-10.1444
▁1929	-10.1445
▁motor	-10.1448
5,000	-10.1454
▁epi	-10.1454
▁Bad	-10.1458
tte	-10.1459
▁Kennedy	-10.1461
▁disc	-10.1462
ona	-10.1464
ennis	-10.1464
▁sun	-10.1474
▁Times	-10.1475
▁Phil	-10.1477
▁flower	-10.1478
▁Mont	-10.1483
run	-10.1484
▁grant	-10.1486
▁genera	-10.1528
▁job	-10.1532
chen	-10.1542
cut	-10.1549
▁senior	-10.1549
▁already	-10.1549
▁inside	-10.1558
▁Ukraine	-10.1567
▁slow	-10.1568
aware	-10.1569
▁Clark	-10.157
.3	-10.1576
▁Roll	-10.1578
▁Hawaii	-10.1585
▁Doctor	-10.1588
28	-10.1588
▁ask	-10.159
▁Arab	-10.1591
96	-10.1601
▁climate	-10.1603
▁royal	-10.1603
▁/	-10.1603
▁write	-10.1605
▁1934	-10.1605
▁1933	-10.1605
▁Opera	-10.161
▁Sur	-10.1618
▁platform	-10.162
ode	-10.1621
▁shape	-10.1622
▁virus	-10.1622
▁cra	-10.1627
▁400	-10.1637
▁weapon	-10.1638
▁Honor	-10.1639
▁think	-10.1639
▁IV	-10.1641
▁34	-10.1642
▁agent	-10.1642
▁fictional	-10.1643
▁Sim	-10.1645
ept	-10.1653
▁lines	-10.1659
rich	-10.1664
▁appli	-10.1669
▁Bible	-10.1674
▁Turn	-10.1675
▁step	-10.1677
▁ski	-10.1678
▁poly	-10.168
04	-10.1682
▁construct	-10.1682
▁volume	-10.1692
▁decade	-10.1692
hand	-10.1702
▁regional	-10.1703
agh	-10.1704
▁1900	-10.1706
▁changes	-10.1714
▁stop	-10.1714
▁Max	-10.173
▁End	-10.1738
▁Motor	-10.174
▁Mexican	-10.1746
▁1926	-10.1749
▁Rod	-10.1749
▁Egyptian	-10.1755
▁tradition	-10.176
▁Francis	-10.1761
▁Arthur	-10.1764
▁mode	-10.1774
▁64	-10.1775
▁category	-10.1783
▁monarch	-10.1783
▁Jones	-10.1788
▁Hal	-10.1789
▁construction	-10.1793
▁Op	-10.1799
▁Command	-10.1802
▁chain	-10.1802
▁root	-10.1802
08	-10.1814
▁told	-10.1818
▁command	-10.1821
▁Also	-10.1823
work	-10.1823
▁Ash	-10.1834
▁immediate	-10.1837
▁retain	-10.1837
▁Angel	-10.1842
▁Whi	-10.1845
▁Member	-10.1856
▁keep	-10.1856
▁slave	-10.1874
▁Tower	-10.1874
▁student	-10.1875
▁Miami	-10.1875
▁1924	-10.1876
▁connected	-10.1877
last	-10.1881
▁Forest	-10.1883
gent	-10.1891
▁33	-10.1892
▁Hospital	-10.1892
▁Original	-10.1892
▁1943	-10.1895
▁violin	-10.1898
▁Even	-10.1899
▁recent	-10.1908
▁Category	-10.1911
▁fruit	-10.1911
▁Ross	-10.1912
▁chosen	-10.1926
kan	-10.1928
▁poor	-10.1931
▁trad	-10.1934
▁tax	-10.1943
▁Of	-10.1945
tress	-10.1952
gun	-10.1956
▁notable	-10.1956
▁spread	-10.1956
▁Justice	-10.1966
ado	-10.1977
▁reveal	-10.1985
▁rival	-10.1985
▁carrier	-10.1995
▁eat	-10.201
▁nearby	-10.2012
ami	-10.2015
ify	-10.2015
▁meet	-10.2019
▁Jane	-10.2021
▁earliest	-10.2022
▁clear	-10.2022
.6	-10.2025
▁towns	-10.2034
▁participated	-10.2035
▁spen	-10.2043
CC	-10.2045
▁distribution	-10.2051
▁ocean	-10.2059
▁difference	-10.206
▁strengthen	-10.2065
31	-10.2073
▁too	-10.2076
▁Vienna	-10.2078
arian	-10.208
▁Station	-10.208
▁limit	-10.2086
▁Single	-10.2089
▁titles	-10.209
▁Princess	-10.2091
▁Orton	-10.2094
▁going	-10.2095
▁Ger	-10.2097
▁drug	-10.2098
▁surround	-10.2109
▁Vol	-10.2114
▁Heritage	-10.2115
02	-10.2115
▁parliament	-10.2126
aya	-10.213
▁Sol	-10.2131
▁ABC	-10.2134
broad	-10.2135
▁Inc	-10.2138
▁believ	-10.214
43	-10.2152
▁alternative	-10.2153
▁Master	-10.2156
▁spring	-10.2157
.8	-10.2163
▁maintain	-10.2172
gel	-10.218
▁Asian	-10.2182
▁Holy	-10.2183
RC	-10.2184
▁DVD	-10.219
▁Jud	-10.219
▁wild	-10.2191
▁percent	-10.2193
▁Marie	-10.2204
▁Lau	-10.2212
▁Mill	-10.2213
fu	-10.2215
▁lot	-10.2217
▁manag	-10.2222
▁arrang	-10.2231
rang	-10.2232
▁Cli	-10.2249
▁median	-10.225
▁guest	-10.2256
▁mention	-10.2259
▁Sil	-10.2261
▁circuit	-10.2266
▁yellow	-10.2266
▁ninth	-10.2267
new	-10.2268
▁rough	-10.2269
▁Wall	-10.2284
▁festival	-10.2285
▁Hunt	-10.2292
▁Human	-10.2295
▁90	-10.2296
▁Norman	-10.2301
▁credit	-10.2305
▁1921	-10.2308
▁Brother	-10.2324
▁Order	-10.2331
▁Sub	-10.2332
▁painting	-10.2342
▁Pittsburgh	-10.2343
▁industrial	-10.2362
▁foreign	-10.2362
▁dialect	-10.2362
RA	-10.2366
sburg	-10.2368
rush	-10.2374
▁Seven	-10.2375
jan	-10.2376
▁identifi	-10.2382
▁prepar	-10.2387
▁Ci	-10.239
▁pitch	-10.2393
▁tributar	-10.2401
▁domestic	-10.2401
▁facilit	-10.2401
▁Wimble	-10.2402
▁talk	-10.2404
nan	-10.2408
▁mixed	-10.2411
Z	-10.2414
▁Bob	-10.242
▁1919	-10.2424
▁Sever	-10.2427
▁Castle	-10.2437
▁CD	-10.2438
▁combined	-10.2439
▁economy	-10.2439
▁negative	-10.2439
▁magnetic	-10.244
▁display	-10.2443
▁sex	-10.245
mini	-10.2453
▁Roger	-10.2455
▁360	-10.2458
▁leav	-10.2458
▁Memorial	-10.2459
▁expect	-10.2459
▁cousin	-10.2459
▁Kelly	-10.246
▁Dom	-10.246
sey	-10.246
▁reference	-10.2464
bri	-10.2465
▁turned	-10.247
mouth	-10.2471
cast	-10.2474
▁literature	-10.2479
Q	-10.2495
▁historic	-10.2497
▁captain	-10.2498
▁rapid	-10.2498
cop	-10.2499
▁normal	-10.2508
▁seed	-10.2508
▁Arabia	-10.2512
▁experience	-10.2517
▁boundar	-10.2518
western	-10.253
▁qualify	-10.2537
▁schedul	-10.2537
▁prominent	-10.2537
49	-10.2539
▁surrounding	-10.2543
▁Dark	-10.2545
pul	-10.2549
▁Field	-10.2557
▁moving	-10.2558
▁genre	-10.2559
▁Rand	-10.2567
▁joint	-10.2568
etic	-10.2568
▁Kim	-10.257
▁Colon	-10.2571
▁Steve	-10.2575
▁challeng	-10.2576
▁troops	-10.2577
▁1932	-10.2579
▁1935	-10.2579
heim	-10.2579
22	-10.258
▁tru	-10.2582
▁brief	-10.2596
▁Alice	-10.2601
▁treatment	-10.2602
▁weaken	-10.2602
24	-10.2603
ability	-10.2607
▁comic	-10.2611
▁Pradesh	-10.2616
▁Well	-10.2623
▁Arch	-10.2626
▁Hollywood	-10.2635
▁downgrad	-10.2636
▁specific	-10.2656
▁reviews	-10.2658
▁flu	-10.2664
▁Bab	-10.2668
pol	-10.267
▁Rights	-10.2676
▁Jim	-10.2676
▁fill	-10.2677
gle	-10.2687
▁lowest	-10.2693
▁engines	-10.2695
▁explor	-10.2695
▁assist	-10.2696
▁Hay	-10.2699
▁Nico	-10.2699
▁problems	-10.27
▁Alli	-10.2712
▁edge	-10.2713
▁Queensland	-10.2715
▁Persian	-10.2716
23	-10.2718
tting	-10.2719
39	-10.2726
26	-10.2727
DS	-10.2731
ffe	-10.2732
▁Dominican	-10.2735
▁Donald	-10.2735
▁bird	-10.2738
▁operate	-10.2738
▁meeting	-10.2742
▁know	-10.2744
.4	-10.2748
▁decision	-10.2755
▁Atlanta	-10.2755
▁ref	-10.2766
▁feed	-10.2775
▁holiday	-10.2775
▁string	-10.2775
▁opposite	-10.2776
▁Portug	-10.2779
ural	-10.2784
▁NBC	-10.2795
▁strike	-10.2795
▁fo	-10.2806
▁cold	-10.2814
▁whether	-10.2815
▁equation	-10.2815
▁Munich	-10.2815
▁Conservative	-10.2816
▁Michel	-10.2817
oxide	-10.2821
▁Tur	-10.2824
▁carry	-10.2828
▁abbreviat	-10.2835
▁WWF	-10.2835
▁Cle	-10.2836
▁1912	-10.2841
▁highly	-10.2842
▁medi	-10.2866
▁Cathedral	-10.2876
▁simple	-10.2876
▁course	-10.2876
▁image	-10.2876
▁northeastern	-10.2879
ira	-10.2879
▁Hor	-10.2882
▁personal	-10.2882
▁Taylor	-10.2896
▁constant	-10.2896
▁1917	-10.2901
▁Upper	-10.2901
41	-10.2903
93	-10.2907
meter	-10.2907
tun	-10.2913
▁Education	-10.2916
▁fossil	-10.2916
▁install	-10.2917
▁theatre	-10.2926
▁spell	-10.2927
▁Public	-10.2937
▁corner	-10.2937
ffi	-10.294
outh	-10.294
.7	-10.2949
tric	-10.295
▁translat	-10.2951
found	-10.2952
▁tea	-10.2954
▁Power	-10.2958
▁dark	-10.2959
▁Work	-10.296
án	-10.2963
▁depend	-10.2971
▁accident	-10.2977
▁alphabet	-10.2977
▁Peace	-10.2978
▁Point	-10.2978
▁Adams	-10.2983
II	-10.2986
▁replace	-10.2987
▁dynasty	-10.2998
▁hop	-10.2999
▁MP	-10.3004
▁digital	-10.3005
▁Metro	-10.3005
▁execut	-10.3014
▁iPhone	-10.3018
▁dedicat	-10.3019
▁therefore	-10.302
▁Dor	-10.3022
▁classical	-10.3034
▁quarter	-10.3038
ão	-10.304
pon	-10.3045
▁Junior	-10.306
▁website	-10.306
▁minutes	-10.3064
▁temple	-10.3076
▁Medicine	-10.308
▁difficult	-10.308
▁liquid	-10.308
▁sales	-10.3081
▁1925	-10.3084
▁Sav	-10.3086
▁flat	-10.3093
▁Cast	-10.3094
▁Arkansas	-10.3101
▁conference	-10.3101
▁southeastern	-10.3104
▁row	-10.3107
▁Sel	-10.311
▁basi	-10.3118
▁question	-10.3122
▁Merc	-10.3133
▁Hav	-10.3134
▁Hawk	-10.3143
▁skin	-10.3146
▁Helen	-10.3151
▁layer	-10.3151
▁editor	-10.3163
▁vector	-10.3164
ologist	-10.3164
och	-10.3164
▁feet	-10.3164
▁1923	-10.3166
▁Bern	-10.3168
gna	-10.3176
29	-10.3177
ré	-10.3177
▁Who	-10.3179
▁scene	-10.3184
36	-10.3195
▁limited	-10.3196
▁Board	-10.3203
▁couple	-10.3205
▁Sky	-10.3207
▁safe	-10.321
▁Cap	-10.3211
▁Both	-10.3217
▁Jordan	-10.3226
▁powerful	-10.323
▁Country	-10.3233
misphere	-10.3247
▁expand	-10.3247
▁Historic	-10.3249
▁arch	-10.3251
▁extinct	-10.3268
▁qualifie	-10.3268
▁latter	-10.3268
▁strip	-10.3269
▁Yorkshire	-10.327
▁Nick	-10.3271
▁Sound	-10.3272
▁dy	-10.3276
race	-10.3276
place	-10.3279
▁Pop	-10.3286
ç	-10.3289
▁hill	-10.3297
▁roll	-10.3305
ñ	-10.331
▁Colombia	-10.331
▁disorder	-10.3312
ridge	-10.3313
▁1931	-10.3314
zar	-10.3328
▁extreme	-10.3332
▁convict	-10.3332
▁fresh	-10.3332
▁zone	-10.3333
▁About	-10.3338
▁Lion	-10.3343
wick	-10.3351
▁street	-10.3353
▁Selena	-10.3354
▁exchange	-10.3354
▁property	-10.3355
continental	-10.3359
▁things	-10.3374
▁Alberta	-10.3374
▁Cop	-10.3375
state	-10.3378
33	-10.3388
▁Pass	-10.3395
▁Hebrew	-10.3396
▁Dallas	-10.3396
▁prior	-10.3396
bol	-10.34
wich	-10.3412
▁iOS	-10.3417
▁twelve	-10.3417
▁ethnic	-10.3417
▁Lower	-10.3417
▁poem	-10.3417
▁problem	-10.3419
asa	-10.3423
▁Common	-10.3423
▁closely	-10.3424
kov	-10.3428
▁Euro	-10.3435
▁Tag	-10.3438
▁occupie	-10.3438
▁capacit	-10.3439
▁occurred	-10.3441
▁Ball	-10.3445
▁Light	-10.3456
61	-10.3458
▁Cook	-10.3458
▁bad	-10.346
▁rich	-10.3473
▁1927	-10.3484
▁Maryland	-10.3494
▁training	-10.3498
▁Alex	-10.3502
▁Professor	-10.3503
▁Tel	-10.3503
library	-10.3503
▁separat	-10.3505
▁Orange	-10.3507
unk	-10.3511
▁Democrat	-10.3515
SA	-10.3523
▁Mediterranean	-10.3524
▁twin	-10.3525
lash	-10.3527
▁secur	-10.3546
▁trial	-10.3546
▁purchas	-10.3568
▁eggs	-10.3568
▁crash	-10.3569
▁DS	-10.3569
▁Garden	-10.3573
▁plate	-10.3576
▁weight	-10.3578
▁iron	-10.358
▁sentence	-10.3583
▁bone	-10.3588
▁Jenn	-10.3589
▁Square	-10.3589
▁1908	-10.3593
rio	-10.3602
▁lung	-10.3613
▁build	-10.3615
board	-10.3628
▁matche	-10.3629
▁try	-10.363
▁winds	-10.3635
▁rise	-10.3636
▁Arabic	-10.3645
ography	-10.3649
▁Leader	-10.3651
▁Peru	-10.3654
▁Jews	-10.3656
▁architecture	-10.3657
▁auto	-10.3659
▁additional	-10.3664
▁spot	-10.3676
▁centuries	-10.3677
▁stories	-10.3677
ashi	-10.369
▁adapt	-10.3691
200	-10.3692
▁themselves	-10.3699
▁cre	-10.3707
▁Web	-10.3709
stad	-10.3717
chlor	-10.3721
▁Kashmir	-10.3721
▁Prefecture	-10.3721
▁Qui	-10.3731
▁contest	-10.3734
arm	-10.3738
▁Iraq	-10.3743
▁Swiss	-10.3743
IS	-10.3743
▁45	-10.3744
▁software	-10.3745
▁Studio	-10.3765
▁Television	-10.3765
▁chairman	-10.3768
▁shar	-10.3777
▁bacteria	-10.378
lesi	-10.3783
34	-10.3784
▁equivalent	-10.3787
▁certifi	-10.3789
▁Corps	-10.3793
hall	-10.3797
▁dropp	-10.38
▁tribe	-10.3801
▁Mass	-10.3801
▁vot	-10.3804
▁Steven	-10.3804
▁Convention	-10.3809
▁convention	-10.3809
▁sand	-10.3814
▁Hungar	-10.3816
▁Athletic	-10.3832
▁Imperial	-10.3832
▁script	-10.3832
▁Capital	-10.3832
▁legislature	-10.3832
▁matter	-10.3832
▁genetic	-10.3839
hill	-10.3848
▁WrestleMania	-10.3854
▁sequence	-10.3854
▁growing	-10.3863
▁mini	-10.3865
▁Bor	-10.3865
▁Amendment	-10.3876
▁colour	-10.3877
▁Giants	-10.3879
▁Costa	-10.3887
▁photo	-10.3889
▁care	-10.389
▁financial	-10.3899
▁Ronald	-10.3899
▁neighborhood	-10.3899
▁What	-10.3899
iya	-10.39
▁medium	-10.3904
▁stone	-10.3907
▁distribut	-10.3908
hire	-10.391
▁Earl	-10.3913
▁sat	-10.3917
▁mainland	-10.3918
▁Buddhis	-10.3921
▁Johann	-10.3922
▁nature	-10.3924
app	-10.3927
▁rain	-10.393
▁Police	-10.3947
Treaty	-10.3947
▁entr	-10.3948
▁Nat	-10.3951
▁adj	-10.3966
▁Foundation	-10.3972
▁Armenia	-10.3981
▁Clo	-10.3982
mel	-10.3987
utonomous	-10.3989
▁eliminat	-10.3989
▁scholar	-10.3989
▁failure	-10.3992
▁Anna	-10.3992
▁mouth	-10.3994
hem	-10.3998
▁format	-10.4
▁critical	-10.4001
titut	-10.4006
▁successor	-10.4007
▁largely	-10.401
▁cathedral	-10.4012
▁fastest	-10.4018
▁Drama	-10.4022
tsu	-10.4029
▁Basket	-10.4034
▁mythology	-10.4034
▁fuel	-10.4035
truck	-10.4045
▁secret	-10.4054
▁ballet	-10.4054
▁Phoenix	-10.4057
▁Armenian	-10.4066
▁Ac	-10.4067
▁Kh	-10.4069
▁Communist	-10.408
▁Support	-10.408
▁Brooklyn	-10.408
▁Alexandr	-10.408
▁cloth	-10.4081
▁Stockholm	-10.4103
▁Lewis	-10.4104
▁unique	-10.4106
▁exact	-10.4109
sign	-10.4109
▁Rica	-10.4124
roll	-10.4126
▁creation	-10.413
mont	-10.413
akh	-10.413
▁transferr	-10.4131
▁Knight	-10.4135
SU	-10.4138
▁Anti	-10.414
standing	-10.4142
▁Death	-10.4144
▁Form	-10.4147
▁chromosome	-10.4149
▁crown	-10.4149
▁Bishop	-10.4149
▁Turkish	-10.4151
hang	-10.4151
▁AD	-10.4152
▁evening	-10.4153
▁mono	-10.4159
▁experiment	-10.4172
▁hundred	-10.4172
▁address	-10.4172
▁Rhode	-10.4172
▁Racing	-10.4173
establish	-10.4192
É	-10.4195
elli	-10.4199
▁hair	-10.4215
▁Matt	-10.4216
▁chamber	-10.4218
▁pilot	-10.4218
▁daily	-10.4218
▁convert	-10.4219
eval	-10.4223
▁41	-10.4228
ographic	-10.4235
▁Qua	-10.4238
▁Your	-10.424
▁Norwegian	-10.4241
▁cricket	-10.4241
▁Belgian	-10.4241
▁Bruins	-10.4241
▁Davis	-10.4242
▁Solar	-10.4262
▁75	-10.427
▁Kil	-10.4275
▁authority	-10.4277
▁Iron	-10.4284
▁physics	-10.4288
▁response	-10.4288
▁chemist	-10.4288
AC	-10.43
▁fair	-10.4303
AA	-10.4307
▁Saturday	-10.4311
▁Austin	-10.4311
▁prevent	-10.4312
▁solid	-10.4312
▁Nepal	-10.4312
▁salt	-10.4315
▁might	-10.4318
▁43	-10.4319
▁union	-10.432
▁hip	-10.4325
▁marked	-10.4325
fare	-10.4333
▁Robinson	-10.4335
▁dam	-10.4337
▁1910	-10.4344
▁angle	-10.4345
▁Research	-10.4358
▁threat	-10.4358
▁Jam	-10.4359
▁bound	-10.4369
▁39	-10.4372
▁highway	-10.438
▁Stephen	-10.4382
▁cook	-10.4396
▁exhibit	-10.4405
▁scientific	-10.4405
▁garden	-10.4405
▁doctor	-10.441
▁dry	-10.4417
▁basic	-10.4423
,500	-10.4424
▁respect	-10.4429
▁Frederick	-10.4429
▁tourist	-10.4431
▁southwestern	-10.4433
▁northwestern	-10.4434
▁map	-10.4443
▁oxide	-10.4449
▁Statistical	-10.4453
▁Back	-10.4454
chan	-10.4455
▁Bang	-10.4457
▁Main	-10.4467
▁bill	-10.4476
▁component	-10.4476
▁approv	-10.4477
▁Arena	-10.4486
▁Nag	-10.4488
.9	-10.4494
▁sugar	-10.4503
▁hall	-10.4518
point	-10.4518
▁Ir	-10.4519
Between	-10.4524
▁watch	-10.4524
ika	-10.4526
speak	-10.4542
▁37	-10.4548
▁Cleveland	-10.4548
▁Interstate	-10.4549
kept	-10.456
▁commission	-10.4572
RT	-10.4576
chester	-10.4585
▁formation	-10.4588
▁picture	-10.4596
▁Centre	-10.4596
▁49	-10.4601
RI	-10.4605
nova	-10.4607
TV	-10.4608
▁36	-10.4612
▁tenth	-10.4614
▁bring	-10.462
▁distinguish	-10.462
body	-10.462
▁Puerto	-10.462
▁floor	-10.462
▁Moon	-10.463
▁Ice	-10.4635
▁Modern	-10.4644
▁Brit	-10.4646
▁Jeff	-10.4653
▁master	-10.4661
▁Chess	-10.4665
▁drummer	-10.4668
▁Croatia	-10.4669
▁judge	-10.467
mine	-10.4673
▁teen	-10.4681
operating	-10.4681
▁Liver	-10.4681
▁drop	-10.4684
wide	-10.4685
scope	-10.4692
▁Welsh	-10.4693
▁Madrid	-10.4694
▁psycho	-10.4705
Each	-10.4705
▁recently	-10.4707
▁correspond	-10.4717
▁Douglas	-10.4717
▁Edinburgh	-10.4717
▁Diego	-10.4717
eldest	-10.4718
bility	-10.4719
▁participat	-10.4724
▁relation	-10.4725
▁Shah	-10.4733
▁Ray	-10.4736
▁Site	-10.474
▁Special	-10.4741
▁astronom	-10.4741
▁burn	-10.4745
▁Monte	-10.4749
▁Dead	-10.475
iff	-10.4758
▁Gor	-10.476
▁easi	-10.4763
▁literal	-10.4763
▁Canadiens	-10.4766
▁evolution	-10.4766
▁permanent	-10.4766
▁Shar	-10.4767
▁cycle	-10.4768
▁coastal	-10.4769
▁emerg	-10.4778
▁slight	-10.4779
▁Last	-10.478
▁Manhattan	-10.479
▁bio	-10.4792
▁taught	-10.4794
▁concentration	-10.4801
ique	-10.4806
▁administration	-10.4815
▁speech	-10.4815
▁Virgin	-10.4823
▁height	-10.4826
eller	-10.4832
ddy	-10.4834
▁solution	-10.484
▁organisation	-10.484
▁giving	-10.484
▁Cur	-10.4842
▁moment	-10.4854
▁communities	-10.4864
▁Simpson	-10.4864
▁belief	-10.4864
▁zero	-10.4865
anning	-10.4868
▁Socialist	-10.4871
▁stat	-10.4872
▁poll	-10.4878
▁Birmingham	-10.4889
▁classified	-10.489
▁contribut	-10.4902
▁Kin	-10.4906
▁Player	-10.4914
Jerusalem	-10.4914
▁effort	-10.4914
▁peninsula	-10.4914
stroke	-10.4915
▁Strait	-10.4925
▁prize	-10.4939
▁Jose	-10.4948
▁Tele	-10.4954
▁Slam	-10.4956
▁Rick	-10.4961
▁architect	-10.4962
▁Thailand	-10.4964
▁constellation	-10.4964
▁provincial	-10.4964
▁folk	-10.4964
▁Trophy	-10.4965
▁lack	-10.4969
▁Head	-10.4976
morph	-10.4981
▁soundtrack	-10.4989
▁Hardy	-10.4989
▁obtain	-10.4989
▁Off	-10.4989
▁UN	-10.4989
lew	-10.4991
▁Eric	-10.4992
▁rating	-10.4997
▁Nash	-10.4998
▁coming	-10.5
amus	-10.5001
▁inspir	-10.5006
maker	-10.5011
å	-10.5014
▁Charlotte	-10.5014
▁dinosaur	-10.5014
▁photograph	-10.5014
▁lap	-10.5014
duct	-10.5014
▁1916	-10.5019
▁municipal	-10.502
▁Temple	-10.5039
▁teaching	-10.5039
▁hunt	-10.504
▁Five	-10.504
▁Creek	-10.5041
▁naming	-10.5041
▁tube	-10.5058
▁cit	-10.5063
▁Cardinal	-10.5064
▁jazz	-10.5064
▁global	-10.5064
▁Carlo	-10.5077
zu	-10.5086
▁Manitoba	-10.5089
▁diagnos	-10.5089
▁pronounc	-10.5089
▁thousand	-10.5089
▁throw	-10.5091
▁definition	-10.5092
▁Pur	-10.5096
▁Tam	-10.511
▁yet	-10.5117
▁Wayne	-10.5125
obi	-10.5128
haps	-10.5138
▁oxygen	-10.514
▁potential	-10.514
▁Utah	-10.514
▁stock	-10.5141
feld	-10.5149
▁effective	-10.5149
▁fun	-10.5149
▁municipalit	-10.5152
ivity	-10.5153
▁OS	-10.5156
▁concerto	-10.516
▁Ottawa	-10.5165
▁galax	-10.5165
▁drink	-10.5167
▁composition	-10.5168
▁assistant	-10.517
▁uncle	-10.5174
▁descend	-10.5177
▁normally	-10.5178
▁Islamic	-10.518
▁growth	-10.5186
▁Nannin	-10.5186
▁honour	-10.5191
▁downtown	-10.5195
▁1911	-10.5197
▁Warner	-10.5201
▁catch	-10.5202
▁press	-10.5203
▁Burn	-10.5209
▁compar	-10.521
▁fund	-10.5214
▁iPad	-10.5217
▁Christoph	-10.5217
▁Wilson	-10.5224
band	-10.5234
rand	-10.5237
▁grow	-10.524
▁elector	-10.5242
▁throne	-10.5242
▁favor	-10.5242
▁suit	-10.5245
▁Rhine	-10.5247
▁Hell	-10.525
▁earthquake	-10.5268
▁walk	-10.5271
▁frequently	-10.528
▁tower	-10.5283
▁Record	-10.5289
▁passe	-10.5292
▁Ferrari	-10.5294
▁1914	-10.5299
▁secondary	-10.5301
▁Silver	-10.5301
▁reserve	-10.5302
tropical	-10.5306
▁Den	-10.5317
room	-10.5318
▁Alfred	-10.5319
▁elevat	-10.532
IC	-10.5328
enberg	-10.5328
▁Allen	-10.5333
▁electronic	-10.5338
▁Social	-10.5338
daho	-10.5343
▁Thi	-10.5343
▁extensive	-10.5345
▁progress	-10.5345
▁republic	-10.5345
▁Belarus	-10.5345
▁shore	-10.5346
▁bit	-10.5356
▁Broadway	-10.5371
▁conflict	-10.5371
▁satellite	-10.5371
▁Margaret	-10.5371
▁Juan	-10.5376
TA	-10.5386
▁populat	-10.5388
ntil	-10.539
▁fough	-10.5396
▁Ancient	-10.5397
▁mosque	-10.5398
▁plain	-10.5398
▁application	-10.5398
▁Eli	-10.5406
▁wear	-10.5412
mount	-10.5416
▁combination	-10.5424
▁invasion	-10.5424
▁signal	-10.5425
▁kingdom	-10.5426
▁Classic	-10.5441
▁Manil	-10.5443
▁Rh	-10.5447
▁concern	-10.545
dependent	-10.5452
▁VI	-10.5467
eastern	-10.5476
▁collaborat	-10.5476
▁Friday	-10.5477
▁Coll	-10.5478
▁hub	-10.5479
▁Parish	-10.5485
▁Lithuania	-10.5502
▁Captain	-10.5502
▁currenc	-10.5502
▁EP	-10.5503
▁Var	-10.5522
class	-10.5525
ander	-10.5528
▁weather	-10.5529
▁Rangers	-10.5529
▁peace	-10.5532
▁Kha	-10.5534
lov	-10.5535
▁Now	-10.5541
cott	-10.5541
ín	-10.5544
▁Epi	-10.5547
▁oppos	-10.5554
▁Congo	-10.558
down	-10.558
▁dollar	-10.5582
▁bodies	-10.5582
bid	-10.5589
–18	-10.5597
▁engineering	-10.5607
▁Antarctic	-10.5608
▁scientist	-10.5608
▁universe	-10.5608
▁Communit	-10.5608
▁comment	-10.5609
▁vice	-10.561
▁involve	-10.5621
▁Zu	-10.5623
▁Brand	-10.5629
▁litera	-10.5636
▁Murray	-10.5636
▁basin	-10.5646
pra	-10.5655
▁activity	-10.5656
▁academic	-10.5662
▁Fra	-10.5671
▁runner	-10.5678
▁Native	-10.5683
aries	-10.5684
word	-10.5684
▁Story	-10.5685
▁−	-10.5687
▁traffic	-10.5688
▁Lancas	-10.5689
▁colony	-10.5694
▁warm	-10.5707
▁society	-10.5715
▁technique	-10.5715
▁narrow	-10.5718
▁journalist	-10.5725
▁Shan	-10.5728
▁manage	-10.5733
▁Harris	-10.5736
▁argu	-10.574
▁circle	-10.5742
▁custom	-10.5742
adventure	-10.5742
ampton	-10.5744
100	-10.5749
taker	-10.5753
▁Buffalo	-10.5769
▁content	-10.577
▁controlled	-10.5772
▁Post	-10.5774
oso	-10.5779
▁Hat	-10.5783
▁soil	-10.5792
ć	-10.5796
▁Building	-10.5796
▁tissue	-10.5796
▁fellow	-10.5799
osis	-10.5805
rill	-10.5816
▁recognis	-10.5824
▁declin	-10.5828
▁USD	-10.583
▁Jan	-10.5837
▁electro	-10.5843
▁prop	-10.5849
▁ceremony	-10.5851
▁bishop	-10.5851
▁programme	-10.5861
▁Kra	-10.5868
▁Maine	-10.5869
▁zoo	-10.5882
▁Syria	-10.5888
▁castle	-10.589
▁continent	-10.5898
century	-10.5899
▁Lawrence	-10.5906
▁column	-10.5906
▁Patrick	-10.5907
▁Glen	-10.5908
fish	-10.5912
viation	-10.5912
▁mill	-10.5924
▁immun	-10.5934
▁Haiti	-10.5936
▁stopp	-10.5945
▁compared	-10.5945
▁occasional	-10.5955
▁Know	-10.5961
▁Pet	-10.5968
▁Turk	-10.5981
▁territories	-10.5988
▁search	-10.5988
▁hydrogen	-10.599
▁1905	-10.5993
Ö	-10.6016
▁Ukrainian	-10.6016
▁Potter	-10.6016
visible	-10.6019
▁Seattle	-10.6021
▁Got	-10.6022
ulf	-10.6037
▁commander	-10.604
▁Guinea	-10.6044
▁copy	-10.6046
▁representative	-10.6048
lob	-10.6055
▁sum	-10.6066
season	-10.6069
▁junior	-10.6072
▁lyrics	-10.6072
▁Wolf	-10.6074
▁programm	-10.6075
▁exception	-10.6075
ency	-10.6085
nniversar	-10.6099
▁1901	-10.6105
▁ranking	-10.6106
▁Apollo	-10.6128
▁Beau	-10.614
▁fell	-10.6142
▁Jefferson	-10.6156
▁comedian	-10.6156
▁Chamber	-10.6156
▁Gregor	-10.6157
▁Bernard	-10.6159
▁Hard	-10.6162
gram	-10.6178
▁Nigeria	-10.6184
EC	-10.6202
▁Economic	-10.6212
▁thirteen	-10.6212
▁Antonio	-10.6212
aire	-10.6212
▁Regional	-10.6225
▁refus	-10.6227
type	-10.6231
▁Philippine	-10.6233
▁agreed	-10.6233
▁Indo	-10.6235
▁fashion	-10.624
▁rail	-10.6241
▁Batman	-10.6251
▁bright	-10.6252
▁metres	-10.6253
▁neighbour	-10.6269
▁Yankee	-10.6269
▁atmosphere	-10.6269
▁volcano	-10.6269
▁sail	-10.6269
▁freestyle	-10.627
▁agreement	-10.627
gency	-10.6271
▁Sarah	-10.6273
mpress	-10.6273
ordinat	-10.6284
▁Kent	-10.6285
▁hotel	-10.6286
▁Media	-10.6295
▁Cricket	-10.6297
▁steel	-10.6297
▁mineral	-10.6297
SE	-10.6298
▁vocalist	-10.6307
£	-10.6326
ū	-10.6326
▁contact	-10.6326
▁Ravens	-10.6328
Ar	-10.633
▁Short	-10.6333
▁traditionally	-10.6341
▁PC	-10.6344
▁Kal	-10.6346
▁Southeast	-10.6348
▁acquired	-10.6354
▁sole	-10.6357
▁sense	-10.6357
▁motion	-10.6364
History	-10.6364
▁Pala	-10.6371
▁Pont	-10.6377
▁Beijing	-10.6383
▁goddess	-10.6383
▁Finnish	-10.6384
▁Tampa	-10.6385
▁politic	-10.6389
▁soft	-10.6404
▁technology	-10.6412
▁flood	-10.6412
▁dominat	-10.6413
▁continuous	-10.6427
▁Walter	-10.6429
▁Place	-10.6431
▁busie	-10.6435
osa	-10.6436
â	-10.6441
▁educat	-10.6441
▁nucleus	-10.6441
▁Carroll	-10.6444
▁reviv	-10.6446
▁Edge	-10.6452
▁cycl	-10.6466
▁explain	-10.647
▁monitor	-10.647
▁demand	-10.6471
▁harm	-10.6475
▁remember	-10.6476
▁densit	-10.6477
▁punk	-10.6477
▁Wei	-10.6484
▁theater	-10.6487
▁boat	-10.6493
▁Gene	-10.6496
▁Development	-10.6499
▁substance	-10.6499
borough	-10.6507
book	-10.6518
count	-10.652
▁neutron	-10.6528
▁Saudi	-10.6528
▁preserv	-10.6533
▁Ballet	-10.6541
▁contrast	-10.6557
▁Hudson	-10.6557
▁Athens	-10.6558
stre	-10.6563
▁notabl	-10.6565
▁Mega	-10.6573
▁indicate	-10.6574
▁Range	-10.6579
▁Advance	-10.6587
▁exclusive	-10.6587
FL	-10.6588
▁desert	-10.6588
bach	-10.659
▁Cruz	-10.6599
▁Total	-10.6601
▁Entr	-10.6602
▁Technolog	-10.6616
▁Anthon	-10.6616
▁attract	-10.6618
▁nucl	-10.6619
bridge	-10.6624
▁skat	-10.6628
▁Airb	-10.6628
▁Anglican	-10.6646
▁Westminster	-10.6646
▁contemporar	-10.6646
▁dissolv	-10.6646
▁Celtic	-10.6646
▁Tibet	-10.6646
▁retirement	-10.6646
▁Petersburg	-10.6647
▁Danish	-10.6653
▁Christianity	-10.6664
take	-10.667
▁Lieutenant	-10.6675
▁restaurant	-10.6675
▁Dublin	-10.6675
▁Madison	-10.6675
▁protest	-10.6675
▁Milan	-10.6689
▁Kenya	-10.6699
▁comprise	-10.6702
▁principle	-10.6705
▁fourteen	-10.6705
▁Call	-10.6712
▁detect	-10.6715
▁Simon	-10.6719
▁1896	-10.6725
▁Camero	-10.6732
ER	-10.6732
▁Matthew	-10.6735
▁TNA	-10.6735
▁Clinton	-10.6735
▁earth	-10.6735
▁fur	-10.6739
▁Isle	-10.6754
▁Orleans	-10.6764
▁phrase	-10.6764
▁batter	-10.6764
▁download	-10.6766
▁Cru	-10.6769
BE	-10.6793
▁thirty	-10.6794
▁Industr	-10.6794
▁approach	-10.6794
▁dominant	-10.6794
▁sponsor	-10.6794
▁insects	-10.6796
▁Fred	-10.6799
▁1903	-10.6799
▁Moore	-10.6809
▁bond	-10.6813
▁Foreign	-10.6824
▁license	-10.6824
▁parallel	-10.6824
▁Oscar	-10.6825
aceae	-10.6827
izz	-10.6831
ault	-10.6832
length	-10.6837
▁hydro	-10.684
▁measur	-10.6846
▁shell	-10.685
▁Artist	-10.6853
▁presen	-10.6854
ا	-10.6855
▁Saturn	-10.6855
▁Medical	-10.6856
▁reform	-10.6856
▁engag	-10.686
load	-10.686
▁Lou	-10.6864
▁adaptation	-10.6866
▁Tyr	-10.6867
▁Cooper	-10.6881
▁athletic	-10.6885
▁Obama	-10.6885
▁1913	-10.6891
▁Hungarian	-10.6892
▁Bear	-10.6895
quest	-10.6896
▁Kid	-10.6911
▁Barcelona	-10.6915
▁sample	-10.6915
▁stretch	-10.6915
▁reflect	-10.6916
▁impact	-10.6922
level	-10.6924
▁Brook	-10.6925
yond	-10.6933
▁Jupiter	-10.6945
▁Performance	-10.6945
▁increasing	-10.6945
▁Nevada	-10.6945
▁detail	-10.6946
PA	-10.6948
▁Iceland	-10.695
elected	-10.6966
▁Rub	-10.6973
ú	-10.6976
▁Shin	-10.6976
▁1909	-10.6981
▁1906	-10.6981
▁promotion	-10.6981
▁contestant	-10.6988
▁Brian	-10.6991
▁Bach	-10.6999
▁Gen	-10.7001
▁Dick	-10.7006
▁Express	-10.7007
▁register	-10.7007
▁mechanic	-10.7007
▁phase	-10.7007
▁entitl	-10.7015
▁setting	-10.7021
▁Anglo	-10.7023
▁magn	-10.7024
SP	-10.7029
▁Cole	-10.7033
▁Cincinnati	-10.7037
▁Columbus	-10.7037
▁maximum	-10.7037
▁Video	-10.7037
▁Essex	-10.7037
▁meant	-10.7039
fort	-10.7039
▁Gate	-10.7043
ddle	-10.7049
▁Hum	-10.7061
▁Emil	-10.7066
AR	-10.7066
▁Philharmonic	-10.7068
▁Harvard	-10.7068
▁Hitler	-10.7068
▁brown	-10.7068
▁someone	-10.7074
▁1907	-10.7074
▁Messi	-10.7082
▁Bryan	-10.7083
▁Suffolk	-10.7099
▁bottom	-10.7099
▁pattern	-10.7099
▁regulat	-10.7099
▁milk	-10.7099
▁repeat	-10.71
▁Gordon	-10.7101
▁activit	-10.7107
style	-10.7109
▁Nadu	-10.711
goes	-10.7129
Norfolk	-10.713
š	-10.713
▁Muhammad	-10.713
▁Protestant	-10.713
▁Affair	-10.713
▁Calgary	-10.713
▁investigat	-10.7131
▁Comedy	-10.7133
aki	-10.7139
▁shut	-10.7144
▁committ	-10.7159
▁asteroid	-10.7161
▁Albania	-10.7161
▁staff	-10.7161
▁Bavaria	-10.7162
▁rural	-10.7163
▁breast	-10.7164
▁Franklin	-10.7166
▁mix	-10.7168
▁Disc	-10.7173
▁Santo	-10.7173
▁web	-10.7174
▁List	-10.7184
▁amendment	-10.7192
arrow	-10.7196
▁solar	-10.7203
▁prisoner	-10.7204
▁Aboriginal	-10.7223
▁NASCAR	-10.7223
▁necessar	-10.7223
▁Chang	-10.7236
▁Dean	-10.7248
▁1890	-10.7251
▁chance	-10.7253
▁Adventure	-10.7255
▁constituenc	-10.7255
▁prefecture	-10.7255
▁gradual	-10.7255
▁Janei	-10.7257
▁Third	-10.7257
▁characteristic	-10.7258
lap	-10.7262
▁internal	-10.7266
gni	-10.7274
▁strength	-10.7276
▁integer	-10.7287
▁Estonia	-10.7287
▁attach	-10.7288
quin	-10.7288
▁unknown	-10.7293
▁paint	-10.7294
Star	-10.7307
▁Class	-10.731
▁dat	-10.7313
▁properties	-10.7318
pop	-10.7322
▁publication	-10.7334
▁Howard	-10.7341
▁serious	-10.7349
▁wealth	-10.7349
▁Test	-10.735
▁Horn	-10.7363
cept	-10.7372
▁fifteen	-10.7381
▁preced	-10.7383
▁recover	-10.7383
MI	-10.7387
order	-10.7388
range	-10.7391
▁engineer	-10.7396
▁Karl	-10.7403
▁Amsterdam	-10.7413
▁Bulgaria	-10.7413
▁medicine	-10.7413
▁Standard	-10.7413
▁Physic	-10.7413
▁afternoon	-10.7413
▁Ryan	-10.7425
▁Salt	-10.7435
▁Jimm	-10.7441
▁UNESCO	-10.7445
▁unusual	-10.7445
▁Through	-10.7445
▁message	-10.7445
▁Arctic	-10.7445
▁Saxony	-10.7445
▁Panther	-10.7446
▁Bobb	-10.745
▁seem	-10.7451
face	-10.7451
▁Winnipeg	-10.7477
▁target	-10.7477
▁Chairman	-10.7477
▁Health	-10.7482
▁tip	-10.7486
where	-10.7486
▁file	-10.7487
▁Bou	-10.7494
▁Zoo	-10.7503
bun	-10.7506
▁price	-10.7512
▁Chu	-10.7518
▁rod	-10.7527
▁Delta	-10.7533
▁Lang	-10.7533
member	-10.7535
▁Nelson	-10.7541
▁perfect	-10.7541
▁Front	-10.7542
▁statue	-10.7543
▁protons	-10.7543
▁feel	-10.7543
master	-10.7559
▁reality	-10.7561
▁agricultur	-10.7574
▁defense	-10.7574
▁elephant	-10.7574
▁emperor	-10.7574
▁possess	-10.7574
▁prince	-10.7574
▁palace	-10.7574
▁squad	-10.7574
▁Crown	-10.7574
▁Stock	-10.759
▁Victor	-10.7598
▁Raj	-10.76
General	-10.7603
▁classic	-10.7604
▁Wyoming	-10.7606
▁Legend	-10.7606
▁classification	-10.7608
▁interview	-10.761
person	-10.7615
▁Titan	-10.7617
▁bassist	-10.7617
▁whale	-10.7631
▁weak	-10.7636
▁Venezuela	-10.7639
▁Marshall	-10.764
nik	-10.7645
▁leadership	-10.765
▁Money	-10.766
▁150	-10.7666
▁quantit	-10.7671
▁answer	-10.7671
▁Movie	-10.7672
▁temp	-10.768
▁restor	-10.7696
▁1870	-10.7698
▁strateg	-10.7704
▁Though	-10.7706
▁Libya	-10.7706
▁driv	-10.7707
▁lawyer	-10.7707
▁Week	-10.771
▁estate	-10.7711
osphere	-10.7721
▁Mun	-10.7735
▁destination	-10.7737
▁Sprint	-10.7737
▁restrict	-10.7737
▁visual	-10.7737
▁illness	-10.7737
▁Miller	-10.7738
▁1904	-10.7742
▁Edmonto	-10.7742
▁partial	-10.7743
WA	-10.7744
▁Nam	-10.7762
language	-10.777
▁Nebraska	-10.777
▁influential	-10.777
script	-10.777
▁feud	-10.777
▁keyboard	-10.7771
▁Blu	-10.7772
▁Israeli	-10.7774
▁1915	-10.7778
▁Kill	-10.7779
▁rotat	-10.7785
▁fame	-10.7786
▁rose	-10.779
▁Canton	-10.78
▁assassinat	-10.7803
▁switch	-10.7803
▁Deputy	-10.7803
▁snow	-10.7803
▁giant	-10.7804
▁tank	-10.7806
▁risk	-10.7806
▁Kevin	-10.7808
▁Among	-10.7813
▁1880	-10.7835
▁Steel	-10.7835
▁Adam	-10.7836
▁Speaker	-10.7836
▁Seoul	-10.7836
▁statistic	-10.7837
▁save	-10.785
▁soap	-10.7858
▁Agency	-10.7865
▁expansion	-10.787
▁sovereign	-10.787
▁Macedonia	-10.787
▁Blood	-10.787
▁pregnan	-10.787
▁fans	-10.7878
▁Eight	-10.7878
▁conclud	-10.7903
▁Rugby	-10.7903
▁interpret	-10.7903
▁geographical	-10.7903
▁Twenty	-10.7903
▁copper	-10.7903
▁priest	-10.7903
▁neck	-10.7906
▁specifically	-10.7906
▁belt	-10.7913
▁Wright	-10.7913
▁Flag	-10.7916
rgy	-10.7916
▁Dave	-10.7929
▁Infantry	-10.7937
▁administer	-10.7937
▁complicat	-10.7937
▁quarterback	-10.7938
weight	-10.7957
▁invit	-10.796
▁chest	-10.7963
life	-10.7964
▁Glasgow	-10.797
▁Security	-10.797
▁Spirit	-10.797
▁warning	-10.7972
▁transform	-10.7974
▁Run	-10.7979
▁kick	-10.7981
ancy	-10.7981
▁Carter	-10.7988
▁1861	-10.7989
▁Ivan	-10.799
▁illustrat	-10.8004
▁Barbara	-10.8004
▁Phillip	-10.8005
▁queen	-10.8005
▁Henri	-10.8008
▁electrical	-10.801
▁Magn	-10.801
▁grown	-10.8011
SC	-10.8018
▁Rosa	-10.8027
▁nitr	-10.8027
▁subtropic	-10.8029
▁alcohol	-10.8038
▁Cabinet	-10.8038
▁circulat	-10.8038
▁muscle	-10.8038
▁swimm	-10.8038
▁elder	-10.804
▁thick	-10.8041
minute	-10.8067
▁variable	-10.8072
▁avoid	-10.8073
▁Malay	-10.8074
▁Hamburg	-10.8074
▁Cather	-10.8077
+	-10.8078
▁Train	-10.808
title	-10.8093
▁lit	-10.8104
▁Vegas	-10.8106
▁Indianapolis	-10.8106
▁Samuel	-10.8106
▁historian	-10.8106
▁choice	-10.8106
▁hir	-10.8117
▁meat	-10.8137
▁hypothesis	-10.814
▁diameter	-10.814
▁Jacob	-10.8141
▁confus	-10.8141
▁reject	-10.8141
▁Sindh	-10.8143
▁guard	-10.8148
▁dense	-10.8155
▁review	-10.8155
▁painter	-10.8168
▁proper	-10.817
▁Russell	-10.8175
▁attention	-10.8175
▁Militar	-10.8176
▁naval	-10.818
▁solv	-10.8183
▁travell	-10.8193
▁Joan	-10.821
▁Freedom	-10.8211
▁stable	-10.8213
▁tract	-10.8219
LB	-10.8222
election	-10.8232
metre	-10.8237
▁pioneer	-10.8244
▁Kerala	-10.8244
▁Guild	-10.8244
▁discuss	-10.8245
▁Cemet	-10.8249
▁McG	-10.8254
▁Rich	-10.8257
▁Zone	-10.8264
400	-10.8272
▁favour	-10.8279
▁pursu	-10.8279
▁Contest	-10.8279
▁Fun	-10.8292
quite	-10.83
▁massive	-10.83
avia	-10.8311
▁dancer	-10.8313
▁session	-10.8314
▁Father	-10.8315
▁residence	-10.8323
▁Touch	-10.8323
▁ruler	-10.8326
▁Brun	-10.8338
▁ratifi	-10.8338
▁Rico	-10.8339
▁1889	-10.8343
hydr	-10.8349
▁descen	-10.8351
▁Mercury	-10.8384
▁trail	-10.8385
▁Transport	-10.8386
nderground	-10.8393
▁socc	-10.8402
▁consum	-10.8418
▁Eurovision	-10.8419
▁Independenc	-10.8419
▁predict	-10.8419
▁José	-10.8419
▁transition	-10.8422
▁occasion	-10.8426
CO	-10.8432
NC	-10.8447
shaw	-10.8447
▁Fantasy	-10.8454
▁constitut	-10.8455
▁guilt	-10.8455
▁Mali	-10.8466
▁Auto	-10.8468
▁parent	-10.8481
▁Nik	-10.8482
▁romantic	-10.8489
▁suicide	-10.8489
▁Julian	-10.849
▁Vermont	-10.8491
▁Wonder	-10.8492
▁Denver	-10.8498
▁revolution	-10.8525
▁Organization	-10.8525
▁acclaim	-10.8525
▁correct	-10.8525
▁temporar	-10.8526
▁Mother	-10.8526
▁anthem	-10.8526
▁Operation	-10.853
▁chess	-10.8532
ASA	-10.855
▁subspecies	-10.8561
α	-10.8561
▁Fernand	-10.8561
▁memory	-10.8561
▁sixteen	-10.8561
▁Aviv	-10.8565
▁theorem	-10.8571
▁Penn	-10.858
▁Executive	-10.8597
▁migrat	-10.8598
▁Wings	-10.8615
▁Lev	-10.8631
▁Universal	-10.8633
▁translation	-10.8635
▁gay	-10.8636
▁decorat	-10.8643
▁WCW	-10.8646
▁gland	-10.8648
▁pull	-10.8648
▁coat	-10.866
▁Trade	-10.8666
▁paid	-10.8666
▁radiation	-10.8669
▁policy	-10.8669
▁evolv	-10.8669
▁defence	-10.867
rank	-10.8673
▁expos	-10.8675
▁Midland	-10.8678
▁cup	-10.8681
▁Holland	-10.8683
▁Found	-10.8684
▁attraction	-10.8702
▁Authorit	-10.8705
▁Business	-10.8705
▁uniform	-10.8705
▁Children	-10.8706
▁clean	-10.8706
▁Florence	-10.8707
▁chose	-10.8712
▁1850	-10.8726
▁chair	-10.874
▁Sierra	-10.8741
▁drain	-10.8742
▁Bueno	-10.8742
▁Natural	-10.8742
▁resistan	-10.8744
▁Portland	-10.8761
▁Hotel	-10.8762
ST	-10.8763
▁Libert	-10.8771
▁Sudan	-10.8778
▁terminal	-10.8779
▁Baker	-10.8794
▁neuro	-10.8794
▁criminal	-10.8814
clusion	-10.8814
▁Bahama	-10.8815
▁1902	-10.882
▁Warwick	-10.8822
▁Luis	-10.8827
▁relat	-10.8828
▁1895	-10.885
▁Desert	-10.8852
profit	-10.8853
winning	-10.8854
ocene	-10.8858
▁Tiger	-10.8864
▁1899	-10.8884
▁identity	-10.8888
▁immigrant	-10.8888
▁Frankfurt	-10.8888
▁denomination	-10.8888
▁Owen	-10.8889
▁Monday	-10.8893
▁Airway	-10.8912
▁Physiolog	-10.8925
▁essential	-10.8925
▁NCAA	-10.8925
▁rapper	-10.8925
▁legislative	-10.8925
▁Kurt	-10.8927
▁birthday	-10.8928
▁Montana	-10.8928
bird	-10.8932
trophy	-10.8934
▁Neu	-10.8955
▁audience	-10.8962
▁heavily	-10.8962
▁sworn	-10.8962
▁depict	-10.8962
▁hypo	-10.8963
▁Bruce	-10.8963
ör	-10.8966
▁wound	-10.8966
pike	-10.8967
▁dispute	-10.8967
▁invad	-10.8976
borg	-10.8984
ī	-10.9
▁activist	-10.9
▁Avenue	-10.9
▁segment	-10.9
central	-10.9026
▁Shakespeare	-10.9037
▁signature	-10.9037
▁Linux	-10.9037
▁contribution	-10.9056
▁connection	-10.9056
posed	-10.9071
▁Lloyd	-10.9075
▁behavior	-10.9075
▁membrane	-10.9075
▁symptom	-10.9075
▁bull	-10.9078
MC	-10.9091
read	-10.9094
▁understand	-10.9102
▁Rumb	-10.9102
▁fantasy	-10.9112
▁recognition	-10.9112
▁Gabriel	-10.9112
▁chloride	-10.9112
▁Derby	-10.9113
▁Bosnia	-10.9113
▁Liber	-10.9117
jack	-10.9118
▁Slovakia	-10.9132
▁Child	-10.915
▁Defense	-10.915
▁Napoleon	-10.915
▁fundamental	-10.915
▁horror	-10.915
▁Testament	-10.915
▁supply	-10.915
▁Lightning	-10.9151
▁abandon	-10.9151
▁Buck	-10.9185
▁Century	-10.9188
▁variant	-10.9188
▁Canucks	-10.9188
▁senator	-10.9189
▁Prior	-10.9197
eaten	-10.9217
ł	-10.9226
▁affiliate	-10.9226
▁imprison	-10.9226
▁Renault	-10.9226
▁herself	-10.9226
▁Geneva	-10.9231
▁prais	-10.9232
▁plus	-10.9234
▁Sicil	-10.9235
▁situation	-10.926
▁demonstrat	-10.9265
▁iPod	-10.9265
▁Latvia	-10.9265
▁Leonard	-10.9265
▁firm	-10.9265
▁Vincent	-10.9266
aught	-10.9267
duction	-10.9283
▁inhabit	-10.9303
▁inaugurat	-10.9303
▁sulfate	-10.9303
▁sleep	-10.9303
▁Snow	-10.9304
▁tiger	-10.9305
▁accus	-10.9306
▁regime	-10.9309
▁Charli	-10.9317
▁Row	-10.9321
▁Horse	-10.933
▁advisor	-10.9337
▁Benjamin	-10.9342
▁Mumbai	-10.9342
▁instruct	-10.9342
▁establishment	-10.9342
▁analysi	-10.9343
▁Morgan	-10.9369
▁Than	-10.9371
▁McMahon	-10.9381
▁variation	-10.9381
▁cloud	-10.9381
▁Circle	-10.9381
▁Anderson	-10.9381
▁combat	-10.9381
▁appeal	-10.9381
▁isolat	-10.9391
educational	-10.9394
▁Flor	-10.9401
▁BAFTA	-10.942
▁Gilbert	-10.942
▁apparent	-10.942
▁Route	-10.942
▁communication	-10.9427
itude	-10.9428
▁send	-10.9434
▁Harrison	-10.9438
▁civilian	-10.944
▁hid	-10.9441
▁Hull	-10.9446
▁possibl	-10.9447
▁Maharashtr	-10.9459
▁chocolate	-10.9459
▁extension	-10.9459
▁horn	-10.9463
▁Naval	-10.9478
▁ratio	-10.9478
▁Ecuador	-10.9498
▁ultimate	-10.9498
▁Devil	-10.9498
▁1860	-10.9529
▁Ferr	-10.9535
▁Baptist	-10.9537
▁predominant	-10.9537
▁venue	-10.9537
▁Next	-10.9539
▁modifi	-10.9562
▁predecessor	-10.9577
▁Slovenia	-10.9577
▁Current	-10.9577
▁Treasur	-10.9577
▁Model	-10.9581
▁Maple	-10.9596
▁crew	-10.9607
▁Berg	-10.9608
▁transfer	-10.9612
▁occupation	-10.9616
▁Gospel	-10.9617
▁proportion	-10.9617
▁Bundeslig	-10.9617
▁false	-10.9618
▁beautiful	-10.9618
▁jet	-10.9623
▁Northwest	-10.9631
▁retir	-10.9647
▁Helsinki	-10.9656
▁collaps	-10.9656
▁Penguin	-10.9656
▁buy	-10.9665
▁Jun	-10.9675
ë	-10.9696
▁resource	-10.9696
▁technical	-10.9696
▁Yellow	-10.9736
▁magnitude	-10.9737
▁Reserve	-10.9737
▁Darwin	-10.9738
▁fear	-10.9739
▁dress	-10.9739
shap	-10.9744
The	-10.9747
▁Ticin	-10.9761
▁Roosevelt	-10.9777
▁supplie	-10.9777
▁bread	-10.9781
ô	-10.9817
▁Abbey	-10.9817
▁glass	-10.9817
▁Urban	-10.9818
▁mixture	-10.9819
▁Add	-10.9823
▁invest	-10.983
▁geolog	-10.9832
▁Surre	-10.984
▁congress	-10.9858
▁Administration	-10.9858
▁Chancellor	-10.9858
▁mobile	-10.9858
▁rebuil	-10.9858
▁worst	-10.9858
▁spectr	-10.9861
▁compilation	-10.9863
smith	-10.9864
caught	-10.9873
▁push	-10.9878
▁1893	-10.9882
▁1898	-10.989
▁Report	-10.9892
▁Continent	-10.9899
▁Ottoman	-10.9899
▁molecular	-10.9899
▁Movement	-10.9899
▁Village	-10.9899
▁geometr	-10.9899
▁Collins	-10.99
PAG	-10.9905
▁colonial	-10.9905
▁percentage	-10.9906
▁unlike	-10.9908
▁sentenc	-10.992
▁attribut	-10.994
▁incident	-10.994
▁Jamaica	-10.994
▁Thames	-10.994
▁compris	-10.9943
▁request	-10.995
efence	-10.995
▁finger	-10.9954
▁Iranian	-10.9954
▁Gordi	-10.9955
▁concentrat	-10.9962
egislative	-10.998
▁Ethiopia	-10.9981
▁identical	-10.9981
▁Richmond	-10.9981
▁Dragon	-10.9981
▁indicat	-10.9984
▁NASA	-10.9987
▁Adelaide	-11.0022
▁Eagle	-11.0023
▁747	-11.0035
▁infect	-11.0043
scribe	-11.0049
▁Donke	-11.0056
▁dwarf	-11.0064
▁Uruguay	-11.0064
▁recommend	-11.0064
▁victori	-11.0064
▁rice	-11.0069
▁grandson	-11.0076
Cube	-11.0087
▁neighbor	-11.0105
▁Bahrain	-11.0105
▁Campbell	-11.0105
▁Salzburg	-11.0105
а	-11.0105
▁calculat	-11.0105
▁Prussia	-11.0105
▁abolish	-11.0105
▁steam	-11.0105
▁vertical	-11.0105
▁Evans	-11.0107
▁VII	-11.0114
lpine	-11.0125
RO	-11.0126
▁Susan	-11.0135
NT	-11.0135
▁tale	-11.0145
▁ceremoni	-11.0147
▁accompani	-11.0147
▁drift	-11.0147
▁rifle	-11.0147
▁eagle	-11.0147
▁quot	-11.0148
▁Belize	-11.0149
▁MTV	-11.0157
▁Somers	-11.0163
media	-11.0172
OR	-11.0183
▁Luxembourg	-11.0189
▁rugby	-11.0189
▁ancestor	-11.0189
▁snake	-11.0189
▁parliamentar	-11.0207
▁Stewart	-11.0231
▁Beatles	-11.0231
▁Newcastle	-11.0231
▁enemy	-11.0232
▁committee	-11.0234
lived	-11.0251
▁Franco	-11.0262
▁survey	-11.0274
▁Abraham	-11.0274
▁liberal	-11.0274
▁error	-11.0274
▁orange	-11.0277
▁sharp	-11.0312
▁cartoon	-11.0316
▁remix	-11.0316
▁Algeria	-11.0318
▁output	-11.0327
▁replacement	-11.0332
▁entertainment	-11.0359
▁Worcester	-11.0359
▁vessel	-11.0359
▁climb	-11.0359
▁fleet	-11.0359
▁worn	-11.0359
▁argument	-11.0365
related	-11.0376
▁Curti	-11.0401
▁Electric	-11.0402
▁absorb	-11.0402
▁goaltender	-11.0402
▁worship	-11.0402
▁huge	-11.0403
:00	-11.0409
▁fluid	-11.0411
▁Sugar	-11.0416
▁Secret	-11.0442
Pyrénées	-11.0445
▁Scandinavia	-11.0445
▁importance	-11.0445
▁knowledge	-11.0445
▁victim	-11.0445
▁margin	-11.0445
▁deposit	-11.0445
▁marry	-11.0446
grad	-11.0454
▁Julie	-11.0459
▁updat	-11.0485
ø	-11.0488
▁surpass	-11.0488
▁Yugoslavia	-11.0507
▁chrom	-11.0516
▁Cycl	-11.0527
▁altitude	-11.0532
▁minimum	-11.0532
▁Lebanon	-11.0532
▁enjoy	-11.0532
▁nominee	-11.0532
▁Uttar	-11.0532
▁Daily	-11.0533
▁personality	-11.0541
=	-11.0552
▁verb	-11.0557
egislature	-11.0575
▁quark	-11.0576
▁shift	-11.0576
▁inherit	-11.0577
▁responsibilit	-11.0577
▁graphic	-11.0588
▁Animat	-11.0603
▁Saskatchewan	-11.0619
▁archipelago	-11.0619
▁frequenc	-11.0619
▁hydroxide	-11.0619
▁automatic	-11.062
▁Alliance	-11.0625
▁Local	-11.0632
▁differ	-11.0655
ogether	-11.0659
*	-11.0663
▁sulfur	-11.0663
▁banned	-11.0663
ophil	-11.0664
▁Nanc	-11.0672
▁Cretaceous	-11.0708
▁teeth	-11.0708
▁Panama	-11.0714
owski	-11.0736
iterature	-11.0752
▁conservative	-11.0752
▁affair	-11.0752
▁Tasmania	-11.0752
▁Lahore	-11.0752
▁fertil	-11.0752
▁flour	-11.0752
▁Getty	-11.0752
▁aspect	-11.0753
▁ride	-11.0767
▁Shir	-11.0786
▁specializ	-11.0791
wage	-11.0792
▁pea	-11.0795
▁Bundes	-11.0796
ı	-11.0797
▁expedition	-11.0797
50,000	-11.0801
spread	-11.0823
×	-11.0842
▁McLaren	-11.0842
▁Sacramento	-11.0842
▁Salvador	-11.0842
▁surrender	-11.0842
▁undergraduate	-11.0842
▁volcanic	-11.0842
▁cabinet	-11.0842
▁struggl	-11.0842
▁zinc	-11.0842
▁UTC	-11.0842
▁sweet	-11.0842
▁plural	-11.0842
▁depth	-11.0842
▁Volks	-11.0842
cliff	-11.0843
▁platinum	-11.0845
▁varie	-11.0847
▁Flyer	-11.0877
▁Brussels	-11.0887
▁rhythm	-11.0887
▁implement	-11.0887
▁dissipat	-11.0887
▁Crash	-11.0887
▁Gustav	-11.0887
▁Leafs	-11.0887
▁knee	-11.0888
▁penalt	-11.089
▁biological	-11.089
nthrop	-11.089
▁quad	-11.0893
и	-11.0932
▁Engineer	-11.0932
▁decrease	-11.0932
▁Ministry	-11.0932
▁Khyber	-11.0932
▁archaeolog	-11.0932
▁Jerry	-11.0932
▁cream	-11.0939
▁etc	-11.0952
power	-11.0963
either	-11.0967
▁Thompson	-11.0977
▁Universe	-11.0977
▁automobile	-11.0977
▁kilometres	-11.0977
▁pianist	-11.0977
▁Ernest	-11.0978
▁annex	-11.0979
called	-11.0993
dorf	-11.1002
▁remnant	-11.1023
▁typhoon	-11.1023
▁Santiag	-11.1023
▁Gothic	-11.1023
▁assumed	-11.1024
▁reef	-11.1025
▁alloy	-11.1029
▁Lead	-11.1038
released	-11.1054
▁flute	-11.1068
▁Karnataka	-11.1069
▁context	-11.1069
▁jurisdiction	-11.1069
▁proclaim	-11.1069
▁Project	-11.1069
▁Shadow	-11.1069
▁achievement	-11.1072
▁Harold	-11.1077
▁Argentine	-11.1115
▁Chevrolet	-11.1115
▁recipient	-11.1115
▁cluster	-11.1115
▁intensity	-11.1115
▁hyper	-11.1115
▁felt	-11.1116
▁assault	-11.1118
▁plot	-11.1119
ovich	-11.1126
ollegiate	-11.1161
▁Attorney	-11.1161
▁admitt	-11.1161
▁funeral	-11.1161
▁leap	-11.1164
▁talent	-11.1164
▁VIII	-11.1165
▁Magazine	-11.1208
▁encourag	-11.1208
augural	-11.1208
▁knock	-11.1208
▁Edmund	-11.1208
▁Basin	-11.1214
▁secretary	-11.1215
▁Friends	-11.1225
▁abuse	-11.1244
à	-11.1254
▁Language	-11.1254
▁Survivor	-11.1254
▁probability	-11.1254
▁Judaism	-11.1254
▁Maurice	-11.1254
▁plastic	-11.1254
▁rib	-11.1256
▁minorit	-11.1277
lead	-11.1297
▁accelerat	-11.1301
▁poison	-11.1301
▁Leicester	-11.1301
▁isotope	-11.1301
▁slope	-11.1302
▁Tuscan	-11.1302
▁underground	-11.1302
▁blind	-11.1302
▁serial	-11.1302
Côte	-11.1302
▁resort	-11.1303
▁devot	-11.1307
▁biology	-11.1309
▁skill	-11.131
▁Leoni	-11.1312
▁characteriz	-11.1333
▁destructi	-11.1349
▁indigenous	-11.1349
▁chapter	-11.1349
▁hormone	-11.1349
▁intestine	-11.1349
▁Rachel	-11.1349
Saxon	-11.1349
▁resembl	-11.135
▁promis	-11.1353
CP	-11.1375
▁journal	-11.1379
▁legend	-11.1385
Pakhtunkhwa	-11.1396
▁Chelsea	-11.1396
▁Circuit	-11.1396
▁Ferdinand	-11.1396
▁Speedway	-11.1396
▁Amazon	-11.1396
▁Whitney	-11.1396
▁deputy	-11.1396
▁habitat	-11.1396
▁Ghana	-11.1396
▁sodium	-11.1396
▁Program	-11.1399
direct	-11.1427
▁chicken	-11.1444
▁predator	-11.1444
▁cinema	-11.1446
▁marine	-11.145
▁geo	-11.1471
nfluence	-11.1491
▁empire	-11.1491
▁monument	-11.1491
▁Where	-11.1493
▁derivative	-11.1494
▁debate	-11.1495
▁Oslo	-11.1501
▁Finn	-11.1528
▁kilometer	-11.1539
▁prayer	-11.154
ammu	-11.1555
0°	-11.156
▁Cornwall	-11.1588
▁defensive	-11.1588
▁specimen	-11.1588
▁Bristol	-11.1588
▁Gaelic	-11.1588
▁diverse	-11.1588
▁Harbor	-11.1594
▁vegetable	-11.1636
▁Nichola	-11.1636
▁Guadal	-11.1637
▁charit	-11.1685
▁Hercules	-11.1685
▁Return	-11.1685
▁cheese	-11.1685
▁Dioces	-11.1686
▁Micro	-11.1686
▁impress	-11.1687
▁controversial	-11.1687
▁Declaration	-11.1734
▁Jonathan	-11.1734
▁pneumonia	-11.1734
▁subsidiar	-11.1734
▁Wagner	-11.1734
▁Number	-11.1734
▁Pearl	-11.1734
▁integrat	-11.1734
expensive	-11.1783
▁Patriots	-11.1783
▁encompass	-11.1783
▁nervous	-11.1783
▁Mozart	-11.1783
▁Article	-11.1784
▁Andrea	-11.1784
▁magic	-11.1788
drove	-11.1833
▁Princip	-11.1833
▁Explorer	-11.1833
▁Gujarat	-11.1833
▁advantage	-11.1833
▁exclud	-11.1833
▁symmetr	-11.1833
▁saint	-11.1833
▁CEO	-11.1833
▁cardinal	-11.1833
▁sauce	-11.1833
▁opposition	-11.1835
▁cease	-11.1842
2,000	-11.1857
▁infra	-11.1878
▁Vince	-11.1882
▁Confederate	-11.1883
▁Production	-11.1885
front	-11.1888
▁entrance	-11.1888
openha	-11.1894
▁Barbados	-11.1933
▁Renaissance	-11.1933
▁illegal	-11.1933
▁unsuccessful	-11.1933
▁widow	-11.1933
▁Caesar	-11.1933
▁relocat	-11.1935
▁Edition	-11.1938
▁Milwaukee	-11.1983
▁Nickelodeon	-11.1983
▁jersey	-11.1983
▁mechanism	-11.1983
▁subfamil	-11.1983
▁gather	-11.1983
▁Shawn	-11.1983
▁infinite	-11.1983
▁humid	-11.2033
▁matrix	-11.2033
▁Tournament	-11.2033
▁midfielder	-11.2033
▁Pepper	-11.2034
▁oxidati	-11.2034
▁decide	-11.2038
▁discontinu	-11.2084
▁enzyme	-11.2084
▁memorial	-11.2084
▁Mitchell	-11.2084
▁crystal	-11.2084
▁Female	-11.2084
▁Electro	-11.2084
position	-11.2087
▁modul	-11.2089
▁Lauren	-11.2128
č	-11.2135
о	-11.2135
▁elbow	-11.2135
▁sculpture	-11.2135
▁skull	-11.2135
▁turtle	-11.2135
▁background	-11.2135
▁vast	-11.2141
▁stem	-11.2142
▁spoke	-11.2157
▁Petr	-11.2181
▁Archbishop	-11.2186
▁vitamin	-11.2186
▁faith	-11.2187
▁choose	-11.2187
▁Abdul	-11.2187
▁withdraw	-11.2187
▁Scots	-11.2187
what	-11.2213
▁Marsh	-11.2219
▁spirit	-11.2237
▁symphon	-11.2238
▁sediment	-11.2238
▁sitting	-11.2238
▁Doroth	-11.2239
▁nineteen	-11.229
▁Animal	-11.229
▁Concord	-11.229
▁Morocc	-11.2292
▁Thunder	-11.2293
ometr	-11.2306
▁Aberdeen	-11.2342
▁pepper	-11.2342
▁Duchess	-11.2342
▁Regiment	-11.2342
▁Tyler	-11.2342
▁denote	-11.2345
▁rope	-11.2348
piece	-11.235
ο	-11.25
ς	-11.266
ß	-11.3329
μ	-11.3387
ν	-11.3445
ρ	-11.3741
ر	-11.3801
е	-11.3984
ï	-11.4046
ل	-11.4233
|	-11.4297
р	-11.436
н	-11.4424
ن	-11.4818
æ	-11.5021
م	-11.5582
λ	-11.5728
ê	-11.6025
ş	-11.6177
с	-11.6177
‘	-11.6177
к	-11.6728
ι	-11.6892
"	-11.6974
ē	-11.7142
ń	-11.7226
ž	-11.7312
σ	-11.7398
ي	-11.7751
ε	-11.8116
κ	-11.8592
î	-11.8789
т	-11.9092
د	-11.9092
~	-11.9405
ă	-11.9511
π	-11.9948
ð	-12.0061
ğ	-12.0289
Ō	-12.0406
л	-12.0406
ə	-12.0406
γ	-12.0763
س	-12.0763
в	-12.0885
و	-12.0885
ί	-12.1008
ب	-12.1008
ό	-12.126
ý	-12.1649
ت	-12.1783
′	-12.2335
δ	-12.2335
·	-12.2622
ω	-12.2622
́	-12.2769
ा	-12.2769
ò	-12.307
ά	-12.3224
д	-12.3539
ř	-12.37
β	-12.37
ه	-12.37
া	-12.42
ù	-12.42
ʻ	-12.42
φ	-12.42
у	-12.4373
м	-12.4373
я	-12.4727
ș	-12.4909
ŏ	-12.5094
η	-12.5283
θ	-12.5283
र	-12.5283
υ	-12.5283
י	-12.5475
ś	-12.5475
}	-12.5671
С	-12.5871
ő	-12.5871
ר	-12.6075
ش	-12.6075
−	-12.6083
น	-12.6283
ร	-12.6496
า	-12.6496
ì	-12.6936
ě	-12.6936
ة	-12.7396
ˈ	-12.7396
й	-12.7634
ա	-12.7634
ו	-12.7878
ę	-12.8127
་	-12.8128
έ	-12.8384
ή	-12.8384
→	-12.8384
Р	-12.8384
Ø	-12.8647
ی	-12.8647
б	-12.8917
्	-12.8917
ṭ	-12.8917
ύ	-12.9195
п	-12.9481
ع	-12.9481
ה	-12.9481
ь	-13.0391
்	-13.0391
Ā	-13.0391
ą	-13.0713
大	-13.0713
\	-13.0713
χ	-13.0713
ج	-13.0713
ح	-13.0713
К	-13.0713
日	-13.1046
ग	-13.1046
г	-13.1391
ง	-13.1391
`	-13.1391
ů	-13.1391
מ	-13.1391
্	-13.1391
⁄	-13.1748
Ü	-13.1748
ḥ	-13.1748
ʿ	-13.1748
व	-13.1748
ч	-13.2119
ţ	-13.2503
ל	-13.2503
র	-13.2503
本	-13.2503
±	-13.2903
ė	-13.2903
ň	-13.2903
Н	-13.2903
ŵ	-13.2903
ц	-13.2903
א	-13.2903
õ	-13.332
ː	-13.332
ک	-13.332
天	-13.332
ã	-13.3733
ف	-13.3755
û	-13.3755
ż	-13.3755
ț	-13.3755
ы	-13.3755
Ş	-13.3755
ز	-13.4209
Σ	-13.4209
ệ	-13.4209
з	-13.4209
П	-13.4686
ɪ	-13.4686
ق	-13.4686
ी	-13.4686
க	-13.4686
ন	-13.4686
ก	-13.4686
ท	-13.5186
त	-13.5186
ー	-13.5186
대	-13.5186
ж	-13.5186
ր	-13.5186
ব	-13.5186
♭	-13.5186
ʼ	-13.5186
ो	-13.5186
ม	-13.5186
Η	-13.5712
ǎ	-13.5712
न	-13.5712
ु	-13.5712
ン	-13.5712
平	-13.5712
ك	-13.5712
ב	-13.6267
ʾ	-13.6267
ि	-13.6267
མ	-13.6267
ུ	-13.6267
ะ	-13.6267
М	-13.6856
ե	-13.6856
ξ	-13.6856
ն	-13.6856
ི	-13.6856
・	-13.6856
þ	-13.6856
ת	-13.6856
ո	-13.7481
œ	-13.7481
х	-13.7481
נ	-13.7481
ס	-13.7481
क	-13.7481
ল	-13.7481
ṯ	-13.7481
ồ	-13.7481
ộ	-13.7481
‐	-13.7481
동	-13.7481
ŭ	-13.7481
দ	-13.7481
ṇ	-13.7481
ש	-13.7481
ल	-13.7481
อ	-13.7481
“	-13.7947
ী	-13.8147
А	-13.8147
स	-13.8147
ক	-13.8147
太	-13.8147
»	-13.8147
ի	-13.8147
خ	-13.8147
ཐ	-13.8147
ཕ	-13.8147
馬	-13.8147
う	-13.8147
ว	-13.8148
พ	-13.8861
ζ	-13.8862
§	-13.8862
ṉ	-13.8862
█	-13.8862
ர	-13.8862
ย	-13.8862
ห	-13.8862
ิ	-13.8862
Ο	-13.9631
ŋ	-13.9631
ุ	-13.9631
の	-13.9631
ψ	-13.9631
ф	-13.9631
і	-13.9631
ை	-13.9631
ế	-13.9631
ル	-13.9631
南	-13.9631
山	-13.9631
道	-13.9631
Д	-13.9631
פ	-13.9631
ん	-13.9631
中	-13.9631
ơ	-13.9631
կ	-13.9631
प	-13.9631
き	-13.9631
神	-13.9631
്	-13.9631
த	-13.9631
ʃ	-14.0464
カ	-14.0464
Ω	-14.0464
گ	-14.0464
ạ	-14.0464
ả	-14.0464
皇	-14.0464
高	-14.0464
ি	-14.0464
Τ	-14.0464
ด	-14.0464
ġ	-14.1373
Φ	-14.1373
đ	-14.1373
ǐ	-14.1373
Α	-14.1373
ן	-14.1373
য	-14.1373
ല	-14.1373
ḷ	-14.1373
ủ	-14.1373
♯	-14.1373
ⴰ	-14.1373
え	-14.1373
下	-14.1373
해	-14.1373
ш	-14.1373
ั	-14.1373
ɑ	-14.2373
ئ	-14.2373
پ	-14.2373
श	-14.2373
ם	-14.2373
স	-14.2373
ẵ	-14.2373
ễ	-14.2373
∴	-14.2373
≤	-14.2373
ば	-14.2373
百	-14.2373
陛	-14.2373
駅	-14.2373
ɡ	-14.2373
մ	-14.2373
ָ	-14.2373
ہ	-14.2373
ḍ	-14.2373
川	-14.2373
े	-14.2373
ট	-14.2373
ম	-14.2373
ে	-14.2373
語	-14.2373
أ	-14.2373
ล	-14.2373
ィ	-14.3484
ט	-14.3484
چ	-14.3484
ু	-14.3484
と	-14.3484
ラ	-14.3484
ḻ	-14.3484
∞	-14.3484
ÿ	-14.3484
ĭ	-14.3484
ம	-14.3484
வ	-14.3484
ṣ	-14.3484
ấ	-14.3484
ἰ	-14.3484
〜	-14.3484
ト	-14.3484
ド	-14.3484
人	-14.3484
北	-14.3484
士	-14.3484
子	-14.3484
武	-14.3484
河	-14.3484
田	-14.3484
福	-14.3484
Í	-14.3484
Χ	-14.3484
ז	-14.3484
द	-14.3484
म	-14.3484
ਾ	-14.3484
ி	-14.3484
প	-14.3484
く	-14.3484
地	-14.3484
국	-14.3484
조	-14.3484
ĕ	-14.3484
ज	-14.3484
শ	-14.3484
ต	-14.3485
ス	-14.4734
か	-14.4734
た	-14.4734
්	-14.4734
ע	-14.4734
ส	-14.4734
ⵉ	-14.4734
ʊ	-14.4734
গ	-14.4734
ರ	-14.4734
国	-14.4734
고	-14.4734
선	-14.4734
정	-14.4734
¥	-14.4734
ħ	-14.4734
ŷ	-14.4734
̱	-14.4734
ਲ	-14.4734
ా	-14.4734
ậ	-14.4734
島	-14.4734
王	-14.4734
ώ	-14.4734
ث	-14.4734
ِ	-14.4734
ப	-14.4734
一	-14.4734
ּ	-14.4734
ד	-14.4734
ு	-14.4734
國	-14.4734
ோ	-14.4734
ɒ	-14.6163
э	-14.6163
ന	-14.6163
ղ	-14.6163
ֹ	-14.6163
ா	-14.6163
ไ	-14.6163
さ	-14.6163
新	-14.6163
한	-14.6163
ъ	-14.6163
¢	-14.6163
ɛ	-14.6163
ַ	-14.6163
ח	-14.6163
כ	-14.6163
জ	-14.6163
ວ	-14.6163
າ	-14.6163
ṓ	-14.6163
ῆ	-14.6163
バ	-14.6163
堂	-14.6163
學	-14.6163
幸	-14.6163
東	-14.6163
的	-14.6163
花	-14.6163
郎	-14.6163
서	-14.6163
장	-14.6163
화	-14.6163
ớ	-14.6163
ɔ	-14.6163
ṅ	-14.6163
ư	-14.6163
風	-14.6163
交	-14.6163
ظ	-14.6163
ய	-14.6163
ี	-14.6163
ช	-14.6163
่	-14.6163
ジ	-14.783
ք	-14.783
イ	-14.783
ச	-14.783
ල	-14.783
ṟ	-14.783
ッ	-14.783
َ	-14.783
ध	-14.783
こ	-14.783
^	-14.783
ų	-14.783
Υ	-14.783
ю	-14.783
ћ	-14.783
ս	-14.783
ֵ	-14.783
ى	-14.783
ھ	-14.783
ਿ	-14.783
ன	-14.783
ം	-14.783
せ	-14.783
ク	-14.783
周	-14.783
局	-14.783
市	-14.783
木	-14.783
校	-14.783
水	-14.783
町	-14.783
童	-14.783
要	-14.783
나	-14.783
마	-14.783
수	-14.783
시	-14.783
어	-14.783
요	-14.783
하	-14.783
Θ	-14.783
ִ	-14.783
ड	-14.783
ῶ	-14.783
₤	-14.783
民	-14.783
路	-14.783
민	-14.783
반	-14.783
ण	-14.783
ʌ	-14.783
ാ	-14.783
我	-14.783
ക	-14.783
ി	-14.983
い	-14.983
غ	-14.983
್	-14.983
吉	-14.983
金	-14.983
ʕ	-14.983
ह	-14.983
ర	-14.983
ಾ	-14.983
セ	-14.983
快	-14.983
ɐ	-14.983
좌	-14.983
ĩ	-14.983
տ	-14.983
ص	-14.983
ਜ	-14.983
ਤ	-14.983
ਰ	-14.983
ສ	-14.983
ὰ	-14.983
↑	-14.983
デ	-14.983
ナ	-14.983
上	-14.983
世	-14.983
五	-14.983
京	-14.983
今	-14.983
原	-14.983
囯	-14.983
宮	-14.983
所	-14.983
方	-14.983
星	-14.983
林	-14.983
永	-14.983
江	-14.983
線	-14.983
縣	-14.983
美	-14.983
良	-14.983
茶	-14.983
重	-14.983
野	-14.983
물	-14.983
사	-14.983
스	-14.983
이	-14.983
주	-14.983
ǔ	-14.983
З	-14.983
ং	-14.983
ố	-14.983
波	-14.983
ג	-14.983
ல	-14.983
ち	-14.983
ょ	-14.983
シ	-14.983
テ	-14.983
ര	-14.983
์	-14.983
ூ	-14.983
ข	-14.983
ា	-15.2329
ヴ	-15.2329
세	-15.233
だ	-15.233
ɳ	-15.233
ভ	-15.233
용	-15.233
̓	-15.233
Я	-15.233
ந	-15.233
―	-15.233
な	-15.233
궁	-15.233
우	-15.233
ƒ	-15.233
ǵ	-15.233
ȟ	-15.233
ɲ	-15.233
̂	-15.233
О	-15.233
թ	-15.233
ռ	-15.233
ך	-15.233
ء	-15.233
ट	-15.233
ष	-15.233
़	-15.233
ਗ	-15.233
ੁ	-15.233
ீ	-15.233
ಯ	-15.233
ಿ	-15.233
ක	-15.233
ා	-15.233
ນ	-15.233
ར	-15.233
ལ	-15.233
ẓ	-15.233
ầ	-15.233
ứ	-15.233
Ὦ	-15.233
‰	-15.233
あ	-15.233
け	-15.233
ま	-15.233
ゃ	-15.233
り	-15.233
全	-15.233
六	-15.233
内	-15.233
参	-15.233
友	-15.233
報	-15.233
場	-15.233
字	-15.233
常	-15.233
延	-15.233
德	-15.233
撃	-15.233
政	-15.233
氏	-15.233
濟	-15.233
祖	-15.233
竹	-15.233
級	-15.233
草	-15.233
运	-15.233
都	-15.233
鐵	-15.233
隊	-15.233
雪	-15.233
频	-15.233
건	-15.233
관	-15.233
부	-15.233
아	-15.233
양	-15.233
운	-15.233
제	-15.233
지	-15.233
훗	-15.233
ǧ	-15.233
գ	-15.233
ਨ	-15.233
ਹ	-15.233
ழ	-15.233
十	-15.233
도	-15.233
윤	-15.233
੍	-15.233
ธ	-15.233
ぎ	-15.233
別	-15.233
攻	-15.233
特	-15.233
立	-15.233
박	-15.233
ட	-15.233
ൊ	-15.233
រ	-15.5662
្	-15.5663
ພ	-15.5663
ಮ	-15.5663
藤	-15.5663
͡	-15.5663
ְ	-15.5663
ḗ	-15.5663
ḵ	-15.5663
ⴷ	-15.5663
ⵖ	-15.5663
は	-15.5663
よ	-15.5663
ワ	-15.5663
动	-15.5663
상	-15.5663
‒	-15.5663
★	-15.5663
支	-15.5663
	-15.5663
÷	-15.5663
Ē	-15.5663
ľ	-15.5663
ũ	-15.5663
ʔ	-15.5663
ˌ	-15.5663
̆	-15.5663
љ	-15.5663
ց	-15.5663
צ	-15.5663
ض	-15.5663
ّ	-15.5663
ٹ	-15.5663
ٽ	-15.5663
ڈ	-15.5663
ܡ	-15.5663
ܵ	-15.5663
ধ	-15.5663
ফ	-15.5663
ਕ	-15.5663
ਮ	-15.5663
਼	-15.5663
ੇ	-15.5663
ੰ	-15.5663
ା	-15.5663
ి	-15.5663
ശ	-15.5663
න	-15.5663
ම	-15.5663
ව	-15.5663
ි	-15.5663
จ	-15.5663
โ	-15.5663
ລ	-15.5663
ະ	-15.5663
ྡ	-15.5663
ნ	-15.5663
ổ	-15.5663
ụ	-15.5663
ữ	-15.5663
ỹ	-15.5663
ῖ	-15.5663
⊂	-15.5663
♄	-15.5663
♙	-15.5663
♟	-15.5663
ⵎ	-15.5663
し	-15.5663
ゴ	-15.5663
ザ	-15.5663
ズ	-15.5663
ツ	-15.5663
マ	-15.5663
リ	-15.5663
二	-15.5663
代	-15.5663
內	-15.5663
右	-15.5663
后	-15.5663
坂	-15.5663
壽	-15.5663
安	-15.5663
対	-15.5663
將	-15.5663
康	-15.5663
建	-15.5663
弁	-15.5663
強	-15.5663
形	-15.5663
慶	-15.5663
抹	-15.5663
月	-15.5663
楽	-15.5663
治	-15.5663
济	-15.5663
海	-15.5663
源	-15.5663
物	-15.5663
生	-15.5663
申	-15.5663
系	-15.5663
莞	-15.5663
行	-15.5663
街	-15.5663
西	-15.5663
语	-15.5663
貝	-15.5663
賞	-15.5663
軒	-15.5663
輔	-15.5663
運	-15.5663
鈴	-15.5663
閣	-15.5663
陵	-15.5663
麗	-15.5663
강	-15.5663
니	-15.5663
당	-15.5663
등	-15.5663
리	-15.5663
미	-15.5663
북	-15.5663
설	-15.5663
신	-15.5663
원	-15.5663
육	-15.5663
인	-15.5663
쟁	-15.5663
헌	-15.5663
현	-15.5663
आ	-15.5663
ѣ	-15.5663
ⵏ	-15.5663
ⵜ	-15.5663
ざ	-15.5663
个	-15.5663
仁	-15.5663
通	-15.5663
連	-15.5663
院	-15.5663
ɨ	-15.5663
˧	-15.5663
च	-15.5663
ය	-15.5663
畿	-15.5663
চ	-15.5663
പ	-15.5663
ു	-15.5663
ག	-15.5663
ས	-15.5663
้	-15.5663
ព	-16.0662
ក	-16.0663
ʋ	-16.0663
ກ	-16.0663
ແ	-16.0663
ɾ	-16.0663
ْ	-16.0663
ே	-16.0663
ಡ	-16.0663
ನ	-16.0663
ട	-16.0663
ඩ	-16.0663
ṗ	-16.0663
パ	-16.0663
ペ	-16.0663
搜	-16.0663
有	-16.0663
Ī	-16.0663
ё	-16.0663
ؤ	-16.0663
ೂ	-16.0663
ප	-16.0663
ガ	-16.0663
補	-16.0663
녀	-16.0663
무	-16.0663
호	-16.0663
ἴ	-16.0663
®	-16.0663
Ĉ	-16.0663
Ĕ	-16.0663
Ĥ	-16.0663
į	-16.0663
ĵ	-16.0663
ǂ	-16.0663
ȝ	-16.0663
ɣ	-16.0663
ɸ	-16.0663
ʒ	-16.0663
̄	-16.0663
̠	-16.0663
̤	-16.0663
Ϻ	-16.0663
І	-16.0663
Й	-16.0663
Ь	-16.0663
є	-16.0663
ѧ	-16.0663
դ	-16.0663
ծ	-16.0663
վ	-16.0663
օ	-16.0663
ֲ	-16.0663
ף	-16.0663
ـ	-16.0663
ً	-16.0663
ڤ	-16.0663
ۍ	-16.0663
ܐ	-16.0663
ঞ	-16.0663
ণ	-16.0663
ਅ	-16.0663
ੱ	-16.0663
ପ	-16.0663
ஜ	-16.0663
ణ	-16.0663
వ	-16.0663
స	-16.0663
ಟ	-16.0663
ಸ	-16.0663
ഗ	-16.0663
ധ	-16.0663
ර	-16.0663
ේ	-16.0663
ງ	-16.0663
ດ	-16.0663
ບ	-16.0663
ມ	-16.0663
ຫ	-16.0663
ອ	-16.0663
ັ	-16.0663
ີ	-16.0663
ື	-16.0663
ຸ	-16.0663
ໄ	-16.0663
້	-16.0663
ཀ	-16.0663
ა	-16.0663
ላ	-16.0663
በ	-16.0663
ḋ	-16.0663
Ḫ	-16.0663
ḳ	-16.0663
ề	-16.0663
ị	-16.0663
ờ	-16.0663
Ἔ	-16.0663
Ἡ	-16.0663
ὴ	-16.0663
ᾶ	-16.0663
ῷ	-16.0663
‡	-16.0663
∂	-16.0663
∈	-16.0663
≆	-16.0663
≠	-16.0663
≡	-16.0663
⋅	-16.0663
⌀	-16.0663
☣	-16.0663
♈	-16.0663
♏	-16.0663
♓	-16.0663
♥	-16.0663
ⵔ	-16.0663
ⵢ	-16.0663
そ	-16.0663
っ	-16.0663
で	-16.0663
め	-16.0663
ゅ	-16.0663
る	-16.0663
ろ	-16.0663
エ	-16.0663
オ	-16.0663
ケ	-16.0663
チ	-16.0663
フ	-16.0663
ブ	-16.0663
メ	-16.0663
ャ	-16.0663
ロ	-16.0663
不	-16.0663
丙	-16.0663
事	-16.0663
令	-16.0663
佛	-16.0663
侍	-16.0663
信	-16.0663
備	-16.0663
僑	-16.0663
儚	-16.0663
元	-16.0663
公	-16.0663
兴	-16.0663
切	-16.0663
列	-16.0663
利	-16.0663
到	-16.0663
制	-16.0663
功	-16.0663
動	-16.0663
勝	-16.0663
區	-16.0663
半	-16.0663
博	-16.0663
卿	-16.0663
台	-16.0663
喜	-16.0663
営	-16.0663
園	-16.0663
型	-16.0663
壤	-16.0663
奈	-16.0663
女	-16.0663
学	-16.0663
宅	-16.0663
守	-16.0663
完	-16.0663
小	-16.0663
峨	-16.0663
崎	-16.0663
嵯	-16.0663
州	-16.0663
帝	-16.0663
年	-16.0663
广	-16.0663
度	-16.0663
廊	-16.0663
影	-16.0663
後	-16.0663
心	-16.0663
忠	-16.0663
意	-16.0663
慈	-16.0663
戦	-16.0663
拙	-16.0663
授	-16.0663
整	-16.0663
文	-16.0663
易	-16.0663
時	-16.0663
景	-16.0663
書	-16.0663
最	-16.0663
期	-16.0663
来	-16.0663
柱	-16.0663
树	-16.0663
森	-16.0663
椒	-16.0663
業	-16.0663
樂	-16.0663
櫻	-16.0663
沖	-16.0663
法	-16.0663
泰	-16.0663
洲	-16.0663
活	-16.0663
浅	-16.0663
深	-16.0663
潤	-16.0663
点	-16.0663
照	-16.0663
玄	-16.0663
玉	-16.0663
琦	-16.0663
痘	-16.0663
白	-16.0663
直	-16.0663
省	-16.0663
矢	-16.0663
社	-16.0663
笑	-16.0663
筝	-16.0663
箸	-16.0663
縱	-16.0663
级	-16.0663
考	-16.0663
腹	-16.0663
蓮	-16.0663
蔵	-16.0663
蕭	-16.0663
裁	-16.0663
裕	-16.0663
諸	-16.0663
識	-16.0663
議	-16.0663
貞	-16.0663
貴	-16.0663
貽	-16.0663
贵	-16.0663
走	-16.0663
起	-16.0663
轄	-16.0663
转	-16.0663
近	-16.0663
進	-16.0663
邑	-16.0663
部	-16.0663
酒	-16.0663
里	-16.0663
钱	-16.0663
长	-16.0663
門	-16.0663
開	-16.0663
闘	-16.0663
鞍	-16.0663
頼	-16.0663
館	-16.0663
龍	-16.0663
구	-16.0663
럼	-16.0663
르	-16.0663
를	-16.0663
백	-16.0663
법	-16.0663
보	-16.0663
봐	-16.0663
성	-16.0663
애	-16.0663
왕	-16.0663
일	-16.0663
잊	-16.0663
자	-16.0663
전	-16.0663
직	-16.0663
처	-16.0663
천	-16.0663
추	-16.0663
콜	-16.0663
토	-16.0663
평	-16.0663
할	-16.0663
혜	-16.0663
ǒ	-16.0663
ѹ	-16.0663
ә	-16.0663
ਯ	-16.0663
ங	-16.0663
ಪ	-16.0663
ር	-16.0663
ጊ	-16.0663
ユ	-16.0663
四	-16.0663
習	-16.0663
角	-16.0663
韓	-16.0663
꼼	-16.0663
덕	-16.0663
먹	-16.0663
속	-16.0663
중	-16.0663
ɹ	-16.0663
উ	-16.0663
മ	-16.0663
你	-16.0663
器	-16.0663
對	-16.0663
愛	-16.0663
സ	-16.0663
ເ	-16.0663
울	-17.0454
외	-17.0455
비	-17.0456
립	-17.0457
려	-17.0458
공	-17.0459
경	-17.046
거	-17.0461
陳	-17.0462
陆	-17.0463
阿	-17.0464
銀	-17.0465
譜	-17.0466
独	-17.0467
火	-17.0468
浙	-17.0469
汉	-17.047
松	-17.0471
敬	-17.0472
座	-17.0473
尹	-17.0474
央	-17.0475
外	-17.0476
基	-17.0477
;	-17.0478
哈	-17.0478
同	-17.0479
古	-17.048
千	-17.0481
众	-17.0482
伊	-17.0483
亚	-17.0484
ニ	-17.0485
ら	-17.0486
ⵍ	-17.0487
ῥ	-17.0488
ὐ	-17.0489
ὁ	-17.049
ὀ	-17.0491
Ἐ	-17.0492
ἁ	-17.0493
ជ	-17.0494
ํ	-17.0495
ณ	-17.0496
ශ	-17.0497
യ	-17.0498
ಹ	-17.0499
ಶ	-17.05
త	-17.0501
ஶ	-17.0502
ও	-17.0503
অ	-17.0504
थ	-17.0505
इ	-17.0506
ܣ	-17.0507
ܘ	-17.0508
ذ	-17.0509
ђ	-17.051
Ш	-17.0511
Х	-17.0512
Љ	-17.0513
Є	-17.0514
Ђ	-17.0515
Ό	-17.0516
ǫ	-17.0517
ļ	-17.0518
ģ	-17.0519
Ć	-17.052
소	-17.0521
自	-17.0522
聖	-17.0523
燕	-17.0524
泉	-17.0525
梅	-17.0526
桜	-17.0527
孙	-17.0528
≈	-17.0529
∼	-17.053
∇	-17.0531
ἐ	-17.0532
Ṣ	-17.0533
Ḵ	-17.0534
ঙ	-17.0535
अ	-17.0536
ձ	-17.0537
Ј	-17.0538
¿	-17.0539
짝	-17.054
黄	-17.0541
華	-17.0542
筷	-17.0543
东	-17.0544
√	-17.0545
∆	-17.0546
ῦ	-17.0547
Ἀ	-17.0548
Ẓ	-17.0549
Ḩ	-17.055
ถ	-17.0551
ङ	-17.0552
ڌ	-17.0553
إ	-17.0554
լ	-17.0555
Ե	-17.0556
У	-17.0557
Ρ	-17.0558
ť	-17.0559
黃	-17.056
香	-17.0561
第	-17.0562
三	-17.0563
„	-17.0564
Ἑ	-17.0565
ἄ	-17.0566
ṃ	-17.0567
แ	-17.0568
ื	-17.0569
บ	-17.057
ฐ	-17.0571
হ	-17.0572
Ч	-17.0573
Β	-17.0574
Ș	-17.0575
Ğ	-17.0576
Ð	-17.0577
연	-17.0578
科	-17.0579
港	-17.058
唐	-17.0581
Ἰ	-17.0582
ਸ	-17.0583
ק	-17.0584
Ν	-17.0585
Ά	-17.0586
̊	-17.0587
八	-17.0588
ौ	-17.0589
Հ	-17.059
富	-17.0591
়	-17.0592
Л	-17.0593
Е	-17.0594
Γ	-17.0595
Ñ	-17.0596
Â	-17.0597
ত	-17.0598
Գ	-17.0599
학	-17.06
교	-17.0601
Ṭ	-17.0602
آ	-17.0603
李	-17.0604
ป	-17.0605
ं	-17.0606
Ա	-17.0607
Г	-17.0608
Π	-17.0609
Ε	-17.061
†	-17.0611
ط	-17.0612
Κ	-17.0613
ἀ	-17.0614
เ	-17.0615
य	-17.0616
յ	-17.0617
È	-17.0618
ւ	-17.0619
«	-17.062
ค	-17.0621
ब	-17.0622
Т	-17.0623
Μ	-17.0624
Ф	-17.0625
Δ	-17.0626
¡	-17.0627
И	-17.0628
Б	-17.0629
Λ	-17.063
Ż	-17.0631
Ḥ	-17.0632
В	-17.0633
Þ	-17.0634
ź	-17.0635
Ι	-17.0636
Ú	-17.0637
ј	-17.0638
Ç	-17.0639
Ś	-17.064
Ó	-17.0641
Ł	-17.0642
Ž	-17.0643
Đ	-17.0644
{	-17.0645
Č	-17.0646
Ä	-17.0647
Î	-17.0648
İ	-17.0649
€	-17.065
Æ	-17.0651
Å	-17.0652
Š	-17.0653
Á	-17.0654
τ	-17.0655
?	-17.0656
<	-17.0657
>	-17.0658
]	-17.0659
#	-17.066
!	-17.0661
ច	-17.0662
ណ	-17.0662
ម	-17.0662
ុ	-17.0662
ះ	-17.0662
%	-17.0662
ග	-17.0663
ො	-17.0663
ศ	-17.0663
が	-17.0663
Տ	-17.0663
ֳ	-17.0663
उ	-17.0663
ⵀ	-17.0663
コ	-17.0663
ヌ	-17.0663
ハ	-17.0663
互	-17.0663
反	-17.0663
图	-17.0663
家	-17.0663
疹	-17.0663
隈	-17.0663
개	-17.0663
총	-17.0663
헛	-17.0663
Ķ	-17.0663
Э	-17.0663
ത	-17.0663
ṛ	-17.0663
ὄ	-17.0663
減	-17.0663
À	-17.0663
Ý	-17.0663
Ă	-17.0663
ĉ	-17.0663
Ġ	-17.0663
ĥ	-17.0663
ĺ	-17.0663
Ľ	-17.0663
Œ	-17.0663
Ř	-17.0663
Ţ	-17.0663
Ʋ	-17.0663
ǘ	-17.0663
ǝ	-17.0663
ǣ	-17.0663
Ǧ	-17.0663
ȳ	-17.0663
ɬ	-17.0663
ʍ	-17.0663
ʑ	-17.0663
ʤ	-17.0663
ʹ	-17.0663
ˀ	-17.0663
˥	-17.0663
̀	-17.0663
̋	-17.0663
̥	-17.0663
̩	-17.0663
̪	-17.0663
̮	-17.0663
Ζ	-17.0663
Ξ	-17.0663
ϻ	-17.0663
Ж	-17.0663
Ц	-17.0663
Ю	-17.0663
щ	-17.0663
ї	-17.0663
ѩ	-17.0663
ҡ	-17.0663
ү	-17.0663
Ӣ	-17.0663
ӣ	-17.0663
ө	-17.0663
Դ	-17.0663
Ծ	-17.0663
Կ	-17.0663
Մ	-17.0663
Յ	-17.0663
Ց	-17.0663
բ	-17.0663
ץ	-17.0663
ُ	-17.0663
ڄ	-17.0663
ڊ	-17.0663
ڑ	-17.0663
ژ	-17.0663
ڦ	-17.0663
ڪ	-17.0663
ګ	-17.0663
ۓ	-17.0663
ܙ	-17.0663
ܚ	-17.0663
ܥ	-17.0663
ܩ	-17.0663
ܪ	-17.0663
ܫ	-17.0663
ܬ	-17.0663
ܼ	-17.0663
ठ	-17.0663
भ	-17.0663
ই	-17.0663
খ	-17.0663
ঢ	-17.0663
ো	-17.0663
ৌ	-17.0663
ৰ	-17.0663
ਆ	-17.0663
ਝ	-17.0663
ਠ	-17.0663
ਣ	-17.0663
ਬ	-17.0663
ਵ	-17.0663
ੂ	-17.0663
પ	-17.0663
ય	-17.0663
ર	-17.0663
િ	-17.0663
ૂ	-17.0663
ો	-17.0663
କ	-17.0663
ଦ	-17.0663
ର	-17.0663
ୀ	-17.0663
ஈ	-17.0663
ண	-17.0663
ொ	-17.0663
ం	-17.0663
ఆ	-17.0663
జ	-17.0663
ధ	-17.0663
ప	-17.0663
బ	-17.0663
భ	-17.0663
య	-17.0663
ల	-17.0663
ూ	-17.0663
ో	-17.0663
్	-17.0663
ಂ	-17.0663
ಕ	-17.0663
ಗ	-17.0663
ಜ	-17.0663
ಣ	-17.0663
ದ	-17.0663
ಲ	-17.0663
ಳ	-17.0663
ು	-17.0663
ೆ	-17.0663
ೊ	-17.0663
ജ	-17.0663
ബ	-17.0663
ള	-17.0663
ൂ	-17.0663
െ	-17.0663
ോ	-17.0663
ං	-17.0663
ට	-17.0663
ත	-17.0663
ද	-17.0663
ස	-17.0663
ී	-17.0663
ෙ	-17.0663
ผ	-17.0663
ຊ	-17.0663
ຕ	-17.0663
ທ	-17.0663
ປ	-17.0663
ູ	-17.0663
ན	-17.0663
བ	-17.0663
ེ	-17.0663
ྟ	-17.0663
ბ	-17.0663
ე	-17.0663
ი	-17.0663
ო	-17.0663
რ	-17.0663
უ	-17.0663
ძ	-17.0663
ჯ	-17.0663
ል	-17.0663
መ	-17.0663
ሙ	-17.0663
ማ	-17.0663
ስ	-17.0663
ሾ	-17.0663
ቂ	-17.0663
ቢ	-17.0663
ተ	-17.0663
ቱ	-17.0663
አ	-17.0663
ወ	-17.0663
ደ	-17.0663
ግ	-17.0663
ᐊ	-17.0663
ᑦ	-17.0663
ᓄ	-17.0663
ᓇ	-17.0663
ᓯ	-17.0663
ᖅ	-17.0663
ᚠ	-17.0663
ᚢ	-17.0663
ᚦ	-17.0663
ᚨ	-17.0663
ᚱ	-17.0663
ᚲ	-17.0663
ᮏ	-17.0663
ᮝ	-17.0663
Ḍ	-17.0663
ḕ	-17.0663
ḫ	-17.0663
ẞ	-17.0663
ẹ	-17.0663
ẻ	-17.0663
ừ	-17.0663
ự	-17.0663
Ἄ	-17.0663
ἔ	-17.0663
ἡ	-17.0663
ἦ	-17.0663
ἱ	-17.0663
ἵ	-17.0663
ἷ	-17.0663
ὕ	-17.0663
ὖ	-17.0663
ὶ	-17.0663
ὸ	-17.0663
ὺ	-17.0663
ᾱ	-17.0663
ῃ	-17.0663
ῄ	-17.0663
ῇ	-17.0663
Ῥ	-17.0663
‚	-17.0663
‬	-17.0663
⁊	-17.0663
₡	-17.0663
₣	-17.0663
⇧	-17.0663
∀	-17.0663
∏	-17.0663
∑	-17.0663
∝	-17.0663
≃	-17.0663
≅	-17.0663
◊	-17.0663
☥	-17.0663
♀	-17.0663
♆	-17.0663
♉	-17.0663
♌	-17.0663
♎	-17.0663
♕	-17.0663
♘	-17.0663
♛	-17.0663
♞	-17.0663
♠	-17.0663
♡	-17.0663
♣	-17.0663
♦	-17.0663
⟨	-17.0663
⟩	-17.0663
ⴱ	-17.0663
ⴳ	-17.0663
ⴹ	-17.0663
ⴻ	-17.0663
ⴼ	-17.0663
ⵊ	-17.0663
ⵓ	-17.0663
ⵕ	-17.0663
ⵙ	-17.0663
ⵣ	-17.0663
⺮	-17.0663
、	-17.0663
〔	-17.0663
〕	-17.0663
ぐ	-17.0663
ず	-17.0663
つ	-17.0663
ど	-17.0663
ぬ	-17.0663
ひ	-17.0663
ぶ	-17.0663
ぷ	-17.0663
へ	-17.0663
べ	-17.0663
み	-17.0663
む	-17.0663
も	-17.0663
れ	-17.0663
わ	-17.0663
ウ	-17.0663
グ	-17.0663
サ	-17.0663
ゼ	-17.0663
タ	-17.0663
ダ	-17.0663
ネ	-17.0663
プ	-17.0663
ミ	-17.0663
ヤ	-17.0663
ュ	-17.0663
ヨ	-17.0663
丸	-17.0663
丹	-17.0663
之	-17.0663
书	-17.0663
仔	-17.0663
仙	-17.0663
仲	-17.0663
会	-17.0663
传	-17.0663
伦	-17.0663
伯	-17.0663
佐	-17.0663
佳	-17.0663
俊	-17.0663
俗	-17.0663
保	-17.0663
修	-17.0663
倶	-17.0663
偈	-17.0663
偕	-17.0663
傅	-17.0663
傳	-17.0663
允	-17.0663
光	-17.0663
免	-17.0663
兮	-17.0663
养	-17.0663
冠	-17.0663
冨	-17.0663
冲	-17.0663
准	-17.0663
副	-17.0663
創	-17.0663
劉	-17.0663
力	-17.0663
務	-17.0663
卍	-17.0663
卐	-17.0663
卑	-17.0663
卓	-17.0663
卜	-17.0663
厦	-17.0663
去	-17.0663
县	-17.0663
及	-17.0663
取	-17.0663
叟	-17.0663
口	-17.0663
句	-17.0663
叶	-17.0663
吳	-17.0663
呼	-17.0663
咀	-17.0663
和	-17.0663
員	-17.0663
唵	-17.0663
嘏	-17.0663
團	-17.0663
坝	-17.0663
坡	-17.0663
城	-17.0663
域	-17.0663
夢	-17.0663
奇	-17.0663
奖	-17.0663
奶	-17.0663
妸	-17.0663
姿	-17.0663
娥	-17.0663
存	-17.0663
孝	-17.0663
孩	-17.0663
宇	-17.0663
宏	-17.0663
客	-17.0663
寶	-17.0663
寺	-17.0663
尊	-17.0663
少	-17.0663
尼	-17.0663
展	-17.0663
岛	-17.0663
岩	-17.0663
嶽	-17.0663
巢	-17.0663
工	-17.0663
左	-17.0663
帆	-17.0663
师	-17.0663
希	-17.0663
幕	-17.0663
幣	-17.0663
干	-17.0663
幼	-17.0663
庆	-17.0663
引	-17.0663
弥	-17.0663
張	-17.0663
彊	-17.0663
彌	-17.0663
彦	-17.0663
徳	-17.0663
忘	-17.0663
忱	-17.0663
念	-17.0663
惠	-17.0663
想	-17.0663
憶	-17.0663
應	-17.0663
成	-17.0663
战	-17.0663
戲	-17.0663
房	-17.0663
扇	-17.0663
打	-17.0663
抗	-17.0663
拉	-17.0663
拜	-17.0663
拯	-17.0663
撫	-17.0663
敏	-17.0663
於	-17.0663
旭	-17.0663
昇	-17.0663
昌	-17.0663
明	-17.0663
春	-17.0663
是	-17.0663
晉	-17.0663
晏	-17.0663
晙	-17.0663
曉	-17.0663
曜	-17.0663
曹	-17.0663
朝	-17.0663
朱	-17.0663
村	-17.0663
条	-17.0663
果	-17.0663
染	-17.0663
根	-17.0663
梦	-17.0663
梵	-17.0663
楷	-17.0663
権	-17.0663
横	-17.0663
橋	-17.0663
機	-17.0663
檔	-17.0663
次	-17.0663
欽	-17.0663
歌	-17.0663
歐	-17.0663
歸	-17.0663
殿	-17.0663
比	-17.0663
求	-17.0663
汤	-17.0663
汪	-17.0663
汽	-17.0663
沛	-17.0663
津	-17.0663
流	-17.0663
浜	-17.0663
浪	-17.0663
涿	-17.0663
渝	-17.0663
湖	-17.0663
溪	-17.0663
滸	-17.0663
炜	-17.0663
烈	-17.0663
無	-17.0663
熊	-17.0663
燉	-17.0663
燒	-17.0663
牡	-17.0663
猷	-17.0663
玥	-17.0663
现	-17.0663
玲	-17.0663
珠	-17.0663
現	-17.0663
球	-17.0663
理	-17.0663
琪	-17.0663
瑜	-17.0663
瑶	-17.0663
电	-17.0663
界	-17.0663
痧	-17.0663
癸	-17.0663
盆	-17.0663
眼	-17.0663
碎	-17.0663
碟	-17.0663
磯	-17.0663
祠	-17.0663
禅	-17.0663
禧	-17.0663
禪	-17.0663
秀	-17.0663
私	-17.0663
秋	-17.0663
程	-17.0663
稔	-17.0663
筠	-17.0663
箏	-17.0663
管	-17.0663
糖	-17.0663
紀	-17.0663
絡	-17.0663
統	-17.0663
継	-17.0663
維	-17.0663
總	-17.0663
罗	-17.0663
羅	-17.0663
翁	-17.0663
翔	-17.0663
耳	-17.0663
耿	-17.0663
肥	-17.0663
能	-17.0663
膺	-17.0663
臺	-17.0663
興	-17.0663
船	-17.0663
艺	-17.0663
芒	-17.0663
芝	-17.0663
芹	-17.0663
英	-17.0663
范	-17.0663
茗	-17.0663
莉	-17.0663
萨	-17.0663
萬	-17.0663
萱	-17.0663
葆	-17.0663
葛	-17.0663
葱	-17.0663
蔡	-17.0663
薩	-17.0663
薮	-17.0663
虎	-17.0663
號	-17.0663
衛	-17.0663
裏	-17.0663
褒	-17.0663
解	-17.0663
言	-17.0663
記	-17.0663
許	-17.0663
話	-17.0663
護	-17.0663
讯	-17.0663
试	-17.0663
话	-17.0663
豐	-17.0663
象	-17.0663
財	-17.0663
貶	-17.0663
資	-17.0663
賈	-17.0663
资	-17.0663
赛	-17.0663
跡	-17.0663
車	-17.0663
軍	-17.0663
軽	-17.0663
车	-17.0663
辛	-17.0663
農	-17.0663
迪	-17.0663
迹	-17.0663
逆	-17.0663
速	-17.0663
達	-17.0663
那	-17.0663
邱	-17.0663
郡	-17.0663
鄉	-17.0663
鄭	-17.0663
配	-17.0663
量	-17.0663
錄	-17.0663
錢	-17.0663
鏡	-17.0663
铁	-17.0663
锋	-17.0663
長	-17.0663
阁	-17.0663
陀	-17.0663
陶	-17.0663
陸	-17.0663
陽	-17.0663
隆	-17.0663
隱	-17.0663
隼	-17.0663
雄	-17.0663
集	-17.0663
雙	-17.0663
雜	-17.0663
青	-17.0663
靜	-17.0663
韦	-17.0663
音	-17.0663
順	-17.0663
风	-17.0663
餅	-17.0663
餘	-17.0663
馆	-17.0663
馨	-17.0663
鬼	-17.0663
鮮	-17.0663
鸟	-17.0663
麟	-17.0663
麹	-17.0663
麺	-17.0663
黎	-17.0663
龙	-17.0663
ꙁ	-17.0663
ꙑ	-17.0663
ꦗ	-17.0663
ꦮ	-17.0663
가	-17.0663
게	-17.0663
군	-17.0663
귀	-17.0663
균	-17.0663
기	-17.0663
남	-17.0663
너	-17.0663
년	-17.0663
농	-17.0663
눈	-17.0663
단	-17.0663
독	-17.0663
돈	-17.0663
듀	-17.0663
떡	-17.0663
떼	-17.0663
라	-17.0663
래	-17.0663
로	-17.0663
메	-17.0663
명	-17.0663
문	-17.0663
밀	-17.0663
밥	-17.0663
번	-17.0663
벌	-17.0663
베	-17.0663
별	-17.0663
병	-17.0663
샤	-17.0663
석	-17.0663
순	-17.0663
숭	-17.0663
슈	-17.0663
승	-17.0663
심	-17.0663
안	-17.0663
여	-17.0663
역	-17.0663
오	-17.0663
옷	-17.0663
욱	-17.0663
월	-17.0663
윌	-17.0663
유	-17.0663
융	-17.0663
의	-17.0663
임	-17.0663
적	-17.0663
족	-17.0663
종	-17.0663
증	-17.0663
짜	-17.0663
창	-17.0663
최	-17.0663
취	-17.0663
카	-17.0663
컴	-17.0663
타	-17.0663
텐	-17.0663
특	-17.0663
팔	-17.0663
퍼	-17.0663
풍	-17.0663
프	-17.0663
플	-17.0663
픔	-17.0663
항	-17.0663
허	-17.0663
혁	-17.0663
활	-17.0663
후	-17.0663
훈	-17.0663
희	-17.0663
Ì	-17.0663
Ħ	-17.0663
ˁ	-17.0663
ằ	-17.0663
Ἁ	-17.0663
任	-17.0663
ɜ	-17.0663
Џ	-17.0663
ұ	-17.0663
Ն	-17.0663
զ	-17.0663
հ	-17.0663
պ	-17.0663
ٿ	-17.0663
ܦ	-17.0663
ܨ	-17.0663
ܸ	-17.0663
फ	-17.0663
ੈ	-17.0663
ଙ	-17.0663
ଟ	-17.0663
୍	-17.0663
இ	-17.0663
ධ	-17.0663
ዮ	-17.0663
Ὑ	-17.0663
Ὠ	-17.0663
に	-17.0663
ほ	-17.0663
在	-17.0663
垂	-17.0663
志	-17.0663
族	-17.0663
杉	-17.0663
洪	-17.0663
赤	-17.0663
鉄	-17.0663
霸	-17.0663
鱲	-17.0663
슬	-17.0663
앙	-17.0663
˩	-17.0663
আ	-17.0663
ḏ	-17.0663
乐	-17.0663
弹	-17.0663
彈	-17.0663
拨	-17.0663
撥	-17.0663
枢	-17.0663
纽	-17.0663
维	-17.0663
)	-17.0663
ང	-17.0663
ད	-17.0663
ྲ	-17.0663
